#include <cstdint>

const unsigned char student_model_data[] = {
    0x08, 0x0a, 0x12, 0x07, 0x70, 0x79, 0x74, 0x6f, 0x72, 0x63, 0x68, 0x1a,
    0x09, 0x32, 0x2e, 0x39, 0x2e, 0x31, 0x2b, 0x63, 0x70, 0x75, 0x3a, 0xea,
    0xe8, 0x03, 0x0a, 0x90, 0x05, 0x0a, 0x0b, 0x73, 0x70, 0x65, 0x63, 0x74,
    0x72, 0x6f, 0x67, 0x72, 0x61, 0x6d, 0x12, 0x05, 0x76, 0x61, 0x6c, 0x5f,
    0x30, 0x1a, 0x0c, 0x6e, 0x6f, 0x64, 0x65, 0x5f, 0x53, 0x68, 0x61, 0x70,
    0x65, 0x5f, 0x30, 0x22, 0x05, 0x53, 0x68, 0x61, 0x70, 0x65, 0x2a, 0x0a,
    0x0a, 0x03, 0x65, 0x6e, 0x64, 0x18, 0x01, 0xa0, 0x01, 0x02, 0x2a, 0x0c,
    0x0a, 0x05, 0x73, 0x74, 0x61, 0x72, 0x74, 0x18, 0x00, 0xa0, 0x01, 0x02,
    0x4a, 0x83, 0x01, 0x0a, 0x09, 0x6e, 0x61, 0x6d, 0x65, 0x73, 0x70, 0x61,
    0x63, 0x65, 0x12, 0x76, 0x5f, 0x65, 0x6d, 0x70, 0x74, 0x79, 0x5f, 0x6e,
    0x6e, 0x5f, 0x6d, 0x6f, 0x64, 0x75, 0x6c, 0x65, 0x5f, 0x73, 0x74, 0x61,
    0x63, 0x6b, 0x5f, 0x66, 0x72, 0x6f, 0x6d, 0x5f, 0x6d, 0x65, 0x74, 0x61,
    0x64, 0x61, 0x74, 0x61, 0x5f, 0x68, 0x6f, 0x6f, 0x6b, 0x3a, 0x20, 0x5f,
    0x65, 0x6d, 0x70, 0x74, 0x79, 0x5f, 0x6e, 0x6e, 0x5f, 0x6d, 0x6f, 0x64,
    0x75, 0x6c, 0x65, 0x5f, 0x73, 0x74, 0x61, 0x63, 0x6b, 0x5f, 0x66, 0x72,
    0x6f, 0x6d, 0x5f, 0x6d, 0x65, 0x74, 0x61, 0x64, 0x61, 0x74, 0x61, 0x5f,
    0x68, 0x6f, 0x6f, 0x6b, 0x2f, 0x73, 0x79, 0x6d, 0x5f, 0x73, 0x69, 0x7a,
    0x65, 0x5f, 0x69, 0x6e, 0x74, 0x5f, 0x33, 0x3a, 0x20, 0x61, 0x74, 0x65,
    0x6e, 0x2e, 0x73, 0x79, 0x6d, 0x5f, 0x73, 0x69, 0x7a, 0x65, 0x2e, 0x69,
    0x6e, 0x74, 0x4a, 0x64, 0x0a, 0x1e, 0x70, 0x6b, 0x67, 0x2e, 0x74, 0x6f,
    0x72, 0x63, 0x68, 0x2e, 0x6f, 0x6e, 0x6e, 0x78, 0x2e, 0x63, 0x6c, 0x61,
    0x73, 0x73, 0x5f, 0x68, 0x69, 0x65, 0x72, 0x61, 0x72, 0x63, 0x68, 0x79,
    0x12, 0x42, 0x5b, 0x27, 0x5f, 0x65, 0x6d, 0x70, 0x74, 0x79, 0x5f, 0x6e,
    0x6e, 0x5f, 0x6d, 0x6f, 0x64, 0x75, 0x6c, 0x65, 0x5f, 0x73, 0x74, 0x61,
    0x63, 0x6b, 0x5f, 0x66, 0x72, 0x6f, 0x6d, 0x5f, 0x6d, 0x65, 0x74, 0x61,
    0x64, 0x61, 0x74, 0x61, 0x5f, 0x68, 0x6f, 0x6f, 0x6b, 0x27, 0x2c, 0x20,
    0x27, 0x61, 0x74, 0x65, 0x6e, 0x2e, 0x73, 0x79, 0x6d, 0x5f, 0x73, 0x69,
    0x7a, 0x65, 0x2e, 0x69, 0x6e, 0x74, 0x27, 0x5d, 0x4a, 0x8a, 0x01, 0x0a,
    0x16, 0x70, 0x6b, 0x67, 0x2e, 0x74, 0x6f, 0x72, 0x63, 0x68, 0x2e, 0x6f,
    0x6e, 0x6e, 0x78, 0x2e, 0x66, 0x78, 0x5f, 0x6e, 0x6f, 0x64, 0x65, 0x12,
    0x70, 0x25, 0x73, 0x79, 0x6d, 0x5f, 0x73, 0x69, 0x7a, 0x65, 0x5f, 0x69,
    0x6e, 0x74, 0x5f, 0x33, 0x20, 0x3a, 0x20, 0x5b, 0x6e, 0x75, 0x6d, 0x5f,
    0x75, 0x73, 0x65, 0x72, 0x73, 0x3d, 0x32, 0x5d, 0x20, 0x3d, 0x20, 0x63,
    0x61, 0x6c, 0x6c, 0x5f, 0x66, 0x75, 0x6e, 0x63, 0x74, 0x69, 0x6f, 0x6e,
    0x5b, 0x74, 0x61, 0x72, 0x67, 0x65, 0x74, 0x3d, 0x74, 0x6f, 0x72, 0x63,
    0x68, 0x2e, 0x6f, 0x70, 0x73, 0x2e, 0x61, 0x74, 0x65, 0x6e, 0x2e, 0x73,
    0x79, 0x6d, 0x5f, 0x73, 0x69, 0x7a, 0x65, 0x2e, 0x69, 0x6e, 0x74, 0x5d,
    0x28, 0x61, 0x72, 0x67, 0x73, 0x20, 0x3d, 0x20, 0x28, 0x25, 0x78, 0x2c,
    0x20, 0x30, 0x29, 0x2c, 0x20, 0x6b, 0x77, 0x61, 0x72, 0x67, 0x73, 0x20,
    0x3d, 0x20, 0x7b, 0x7d, 0x29, 0x4a, 0x5d, 0x0a, 0x1a, 0x70, 0x6b, 0x67,
    0x2e, 0x74, 0x6f, 0x72, 0x63, 0x68, 0x2e, 0x6f, 0x6e, 0x6e, 0x78, 0x2e,
    0x6e, 0x61, 0x6d, 0x65, 0x5f, 0x73, 0x63, 0x6f, 0x70, 0x65, 0x73, 0x12,
    0x3f, 0x5b, 0x27, 0x5f, 0x65, 0x6d, 0x70, 0x74, 0x79, 0x5f, 0x6e, 0x6e,
    0x5f, 0x6d, 0x6f, 0x64, 0x75, 0x6c, 0x65, 0x5f, 0x73, 0x74, 0x61, 0x63,
    0x6b, 0x5f, 0x66, 0x72, 0x6f, 0x6d, 0x5f, 0x6d, 0x65, 0x74, 0x61, 0x64,
    0x61, 0x74, 0x61, 0x5f, 0x68, 0x6f, 0x6f, 0x6b, 0x27, 0x2c, 0x20, 0x27,
    0x73, 0x79, 0x6d, 0x5f, 0x73, 0x69, 0x7a, 0x65, 0x5f, 0x69, 0x6e, 0x74,
    0x5f, 0x33, 0x27, 0x5d, 0x4a, 0x73, 0x0a, 0x1a, 0x70, 0x6b, 0x67, 0x2e,
    0x74, 0x6f, 0x72, 0x63, 0x68, 0x2e, 0x6f, 0x6e, 0x6e, 0x78, 0x2e, 0x73,
    0x74, 0x61, 0x63, 0x6b, 0x5f, 0x74, 0x72, 0x61, 0x63, 0x65, 0x12, 0x55,
    0x46, 0x69, 0x6c, 0x65, 0x20, 0x22, 0x74, 0x6f, 0x72, 0x63, 0x68, 0x2f,
    0x66, 0x78, 0x2f, 0x70, 0x61, 0x73, 0x73, 0x65, 0x73, 0x2f, 0x72, 0x75,
    0x6e, 0x74, 0x69, 0x6d, 0x65, 0x5f, 0x61, 0x73, 0x73, 0x65, 0x72, 0x74,
    0x2e, 0x70, 0x79, 0x22, 0x2c, 0x20, 0x6c, 0x69, 0x6e, 0x65, 0x20, 0x32,
    0x34, 0x2c, 0x20, 0x69, 0x6e, 0x20, 0x69, 0x6e, 0x73, 0x65, 0x72, 0x74,
    0x5f, 0x64, 0x65, 0x66, 0x65, 0x72, 0x72, 0x65, 0x64, 0x5f, 0x72, 0x75,
    0x6e, 0x74, 0x69, 0x6d, 0x65, 0x5f, 0x61, 0x73, 0x73, 0x65, 0x72, 0x74,
    0x73, 0x0a, 0x82, 0x05, 0x0a, 0x05, 0x76, 0x61, 0x6c, 0x5f, 0x30, 0x12,
    0x0e, 0x73, 0x79, 0x6d, 0x5f, 0x73, 0x69, 0x7a, 0x65, 0x5f, 0x69, 0x6e,
    0x74, 0x5f, 0x33, 0x1a, 0x13, 0x6e, 0x6f, 0x64, 0x65, 0x5f, 0x73, 0x79,
    0x6d, 0x5f, 0x73, 0x69, 0x7a, 0x65, 0x5f, 0x69, 0x6e, 0x74, 0x5f, 0x33,
    0x22, 0x07, 0x53, 0x71, 0x75, 0x65, 0x65, 0x7a, 0x65, 0x4a, 0x83, 0x01,
    0x0a, 0x09, 0x6e, 0x61, 0x6d, 0x65, 0x73, 0x70, 0x61, 0x63, 0x65, 0x12,
    0x76, 0x5f, 0x65, 0x6d, 0x70, 0x74, 0x79, 0x5f, 0x6e, 0x6e, 0x5f, 0x6d,
    0x6f, 0x64, 0x75, 0x6c, 0x65, 0x5f, 0x73, 0x74, 0x61, 0x63, 0x6b, 0x5f,
    0x66, 0x72, 0x6f, 0x6d, 0x5f, 0x6d, 0x65, 0x74, 0x61, 0x64, 0x61, 0x74,
    0x61, 0x5f, 0x68, 0x6f, 0x6f, 0x6b, 0x3a, 0x20, 0x5f, 0x65, 0x6d, 0x70,
    0x74, 0x79, 0x5f, 0x6e, 0x6e, 0x5f, 0x6d, 0x6f, 0x64, 0x75, 0x6c, 0x65,
    0x5f, 0x73, 0x74, 0x61, 0x63, 0x6b, 0x5f, 0x66, 0x72, 0x6f, 0x6d, 0x5f,
    0x6d, 0x65, 0x74, 0x61, 0x64, 0x61, 0x74, 0x61, 0x5f, 0x68, 0x6f, 0x6f,
    0x6b, 0x2f, 0x73, 0x79, 0x6d, 0x5f, 0x73, 0x69, 0x7a, 0x65, 0x5f, 0x69,
    0x6e, 0x74, 0x5f, 0x33, 0x3a, 0x20, 0x61, 0x74, 0x65, 0x6e, 0x2e, 0x73,
    0x79, 0x6d, 0x5f, 0x73, 0x69, 0x7a, 0x65, 0x2e, 0x69, 0x6e, 0x74, 0x4a,
    0x64, 0x0a, 0x1e, 0x70, 0x6b, 0x67, 0x2e, 0x74, 0x6f, 0x72, 0x63, 0x68,
    0x2e, 0x6f, 0x6e, 0x6e, 0x78, 0x2e, 0x63, 0x6c, 0x61, 0x73, 0x73, 0x5f,
    0x68, 0x69, 0x65, 0x72, 0x61, 0x72, 0x63, 0x68, 0x79, 0x12, 0x42, 0x5b,
    0x27, 0x5f, 0x65, 0x6d, 0x70, 0x74, 0x79, 0x5f, 0x6e, 0x6e, 0x5f, 0x6d,
    0x6f, 0x64, 0x75, 0x6c, 0x65, 0x5f, 0x73, 0x74, 0x61, 0x63, 0x6b, 0x5f,
    0x66, 0x72, 0x6f, 0x6d, 0x5f, 0x6d, 0x65, 0x74, 0x61, 0x64, 0x61, 0x74,
    0x61, 0x5f, 0x68, 0x6f, 0x6f, 0x6b, 0x27, 0x2c, 0x20, 0x27, 0x61, 0x74,
    0x65, 0x6e, 0x2e, 0x73, 0x79, 0x6d, 0x5f, 0x73, 0x69, 0x7a, 0x65, 0x2e,
    0x69, 0x6e, 0x74, 0x27, 0x5d, 0x4a, 0x8a, 0x01, 0x0a, 0x16, 0x70, 0x6b,
    0x67, 0x2e, 0x74, 0x6f, 0x72, 0x63, 0x68, 0x2e, 0x6f, 0x6e, 0x6e, 0x78,
    0x2e, 0x66, 0x78, 0x5f, 0x6e, 0x6f, 0x64, 0x65, 0x12, 0x70, 0x25, 0x73,
    0x79, 0x6d, 0x5f, 0x73, 0x69, 0x7a, 0x65, 0x5f, 0x69, 0x6e, 0x74, 0x5f,
    0x33, 0x20, 0x3a, 0x20, 0x5b, 0x6e, 0x75, 0x6d, 0x5f, 0x75, 0x73, 0x65,
    0x72, 0x73, 0x3d, 0x32, 0x5d, 0x20, 0x3d, 0x20, 0x63, 0x61, 0x6c, 0x6c,
    0x5f, 0x66, 0x75, 0x6e, 0x63, 0x74, 0x69, 0x6f, 0x6e, 0x5b, 0x74, 0x61,
    0x72, 0x67, 0x65, 0x74, 0x3d, 0x74, 0x6f, 0x72, 0x63, 0x68, 0x2e, 0x6f,
    0x70, 0x73, 0x2e, 0x61, 0x74, 0x65, 0x6e, 0x2e, 0x73, 0x79, 0x6d, 0x5f,
    0x73, 0x69, 0x7a, 0x65, 0x2e, 0x69, 0x6e, 0x74, 0x5d, 0x28, 0x61, 0x72,
    0x67, 0x73, 0x20, 0x3d, 0x20, 0x28, 0x25, 0x78, 0x2c, 0x20, 0x30, 0x29,
    0x2c, 0x20, 0x6b, 0x77, 0x61, 0x72, 0x67, 0x73, 0x20, 0x3d, 0x20, 0x7b,
    0x7d, 0x29, 0x4a, 0x5d, 0x0a, 0x1a, 0x70, 0x6b, 0x67, 0x2e, 0x74, 0x6f,
    0x72, 0x63, 0x68, 0x2e, 0x6f, 0x6e, 0x6e, 0x78, 0x2e, 0x6e, 0x61, 0x6d,
    0x65, 0x5f, 0x73, 0x63, 0x6f, 0x70, 0x65, 0x73, 0x12, 0x3f, 0x5b, 0x27,
    0x5f, 0x65, 0x6d, 0x70, 0x74, 0x79, 0x5f, 0x6e, 0x6e, 0x5f, 0x6d, 0x6f,
    0x64, 0x75, 0x6c, 0x65, 0x5f, 0x73, 0x74, 0x61, 0x63, 0x6b, 0x5f, 0x66,
    0x72, 0x6f, 0x6d, 0x5f, 0x6d, 0x65, 0x74, 0x61, 0x64, 0x61, 0x74, 0x61,
    0x5f, 0x68, 0x6f, 0x6f, 0x6b, 0x27, 0x2c, 0x20, 0x27, 0x73, 0x79, 0x6d,
    0x5f, 0x73, 0x69, 0x7a, 0x65, 0x5f, 0x69, 0x6e, 0x74, 0x5f, 0x33, 0x27,
    0x5d, 0x4a, 0x73, 0x0a, 0x1a, 0x70, 0x6b, 0x67, 0x2e, 0x74, 0x6f, 0x72,
    0x63, 0x68, 0x2e, 0x6f, 0x6e, 0x6e, 0x78, 0x2e, 0x73, 0x74, 0x61, 0x63,
    0x6b, 0x5f, 0x74, 0x72, 0x61, 0x63, 0x65, 0x12, 0x55, 0x46, 0x69, 0x6c,
    0x65, 0x20, 0x22, 0x74, 0x6f, 0x72, 0x63, 0x68, 0x2f, 0x66, 0x78, 0x2f,
    0x70, 0x61, 0x73, 0x73, 0x65, 0x73, 0x2f, 0x72, 0x75, 0x6e, 0x74, 0x69,
    0x6d, 0x65, 0x5f, 0x61, 0x73, 0x73, 0x65, 0x72, 0x74, 0x2e, 0x70, 0x79,
    0x22, 0x2c, 0x20, 0x6c, 0x69, 0x6e, 0x65, 0x20, 0x32, 0x34, 0x2c, 0x20,
    0x69, 0x6e, 0x20, 0x69, 0x6e, 0x73, 0x65, 0x72, 0x74, 0x5f, 0x64, 0x65,
    0x66, 0x65, 0x72, 0x72, 0x65, 0x64, 0x5f, 0x72, 0x75, 0x6e, 0x74, 0x69,
    0x6d, 0x65, 0x5f, 0x61, 0x73, 0x73, 0x65, 0x72, 0x74, 0x73, 0x0a, 0x90,
    0x05, 0x0a, 0x0b, 0x73, 0x70, 0x65, 0x63, 0x74, 0x72, 0x6f, 0x67, 0x72,
    0x61, 0x6d, 0x12, 0x05, 0x76, 0x61, 0x6c, 0x5f, 0x31, 0x1a, 0x0c, 0x6e,
    0x6f, 0x64, 0x65, 0x5f, 0x53, 0x68, 0x61, 0x70, 0x65, 0x5f, 0x31, 0x22,
    0x05, 0x53, 0x68, 0x61, 0x70, 0x65, 0x2a, 0x0a, 0x0a, 0x03, 0x65, 0x6e,
    0x64, 0x18, 0x02, 0xa0, 0x01, 0x02, 0x2a, 0x0c, 0x0a, 0x05, 0x73, 0x74,
    0x61, 0x72, 0x74, 0x18, 0x01, 0xa0, 0x01, 0x02, 0x4a, 0x83, 0x01, 0x0a,
    0x09, 0x6e, 0x61, 0x6d, 0x65, 0x73, 0x70, 0x61, 0x63, 0x65, 0x12, 0x76,
    0x5f, 0x65, 0x6d, 0x70, 0x74, 0x79, 0x5f, 0x6e, 0x6e, 0x5f, 0x6d, 0x6f,
    0x64, 0x75, 0x6c, 0x65, 0x5f, 0x73, 0x74, 0x61, 0x63, 0x6b, 0x5f, 0x66,
    0x72, 0x6f, 0x6d, 0x5f, 0x6d, 0x65, 0x74, 0x61, 0x64, 0x61, 0x74, 0x61,
    0x5f, 0x68, 0x6f, 0x6f, 0x6b, 0x3a, 0x20, 0x5f, 0x65, 0x6d, 0x70, 0x74,
    0x79, 0x5f, 0x6e, 0x6e, 0x5f, 0x6d, 0x6f, 0x64, 0x75, 0x6c, 0x65, 0x5f,
    0x73, 0x74, 0x61, 0x63, 0x6b, 0x5f, 0x66, 0x72, 0x6f, 0x6d, 0x5f, 0x6d,
    0x65, 0x74, 0x61, 0x64, 0x61, 0x74, 0x61, 0x5f, 0x68, 0x6f, 0x6f, 0x6b,
    0x2f, 0x73, 0x79, 0x6d, 0x5f, 0x73, 0x69, 0x7a, 0x65, 0x5f, 0x69, 0x6e,
    0x74, 0x5f, 0x34, 0x3a, 0x20, 0x61, 0x74, 0x65, 0x6e, 0x2e, 0x73, 0x79,
    0x6d, 0x5f, 0x73, 0x69, 0x7a, 0x65, 0x2e, 0x69, 0x6e, 0x74, 0x4a, 0x64,
    0x0a, 0x1e, 0x70, 0x6b, 0x67, 0x2e, 0x74, 0x6f, 0x72, 0x63, 0x68, 0x2e,
    0x6f, 0x6e, 0x6e, 0x78, 0x2e, 0x63, 0x6c, 0x61, 0x73, 0x73, 0x5f, 0x68,
    0x69, 0x65, 0x72, 0x61, 0x72, 0x63, 0x68, 0x79, 0x12, 0x42, 0x5b, 0x27,
    0x5f, 0x65, 0x6d, 0x70, 0x74, 0x79, 0x5f, 0x6e, 0x6e, 0x5f, 0x6d, 0x6f,
    0x64, 0x75, 0x6c, 0x65, 0x5f, 0x73, 0x74, 0x61, 0x63, 0x6b, 0x5f, 0x66,
    0x72, 0x6f, 0x6d, 0x5f, 0x6d, 0x65, 0x74, 0x61, 0x64, 0x61, 0x74, 0x61,
    0x5f, 0x68, 0x6f, 0x6f, 0x6b, 0x27, 0x2c, 0x20, 0x27, 0x61, 0x74, 0x65,
    0x6e, 0x2e, 0x73, 0x79, 0x6d, 0x5f, 0x73, 0x69, 0x7a, 0x65, 0x2e, 0x69,
    0x6e, 0x74, 0x27, 0x5d, 0x4a, 0x8a, 0x01, 0x0a, 0x16, 0x70, 0x6b, 0x67,
    0x2e, 0x74, 0x6f, 0x72, 0x63, 0x68, 0x2e, 0x6f, 0x6e, 0x6e, 0x78, 0x2e,
    0x66, 0x78, 0x5f, 0x6e, 0x6f, 0x64, 0x65, 0x12, 0x70, 0x25, 0x73, 0x79,
    0x6d, 0x5f, 0x73, 0x69, 0x7a, 0x65, 0x5f, 0x69, 0x6e, 0x74, 0x5f, 0x34,
    0x20, 0x3a, 0x20, 0x5b, 0x6e, 0x75, 0x6d, 0x5f, 0x75, 0x73, 0x65, 0x72,
    0x73, 0x3d, 0x32, 0x5d, 0x20, 0x3d, 0x20, 0x63, 0x61, 0x6c, 0x6c, 0x5f,
    0x66, 0x75, 0x6e, 0x63, 0x74, 0x69, 0x6f, 0x6e, 0x5b, 0x74, 0x61, 0x72,
    0x67, 0x65, 0x74, 0x3d, 0x74, 0x6f, 0x72, 0x63, 0x68, 0x2e, 0x6f, 0x70,
    0x73, 0x2e, 0x61, 0x74, 0x65, 0x6e, 0x2e, 0x73, 0x79, 0x6d, 0x5f, 0x73,
    0x69, 0x7a, 0x65, 0x2e, 0x69, 0x6e, 0x74, 0x5d, 0x28, 0x61, 0x72, 0x67,
    0x73, 0x20, 0x3d, 0x20, 0x28, 0x25, 0x78, 0x2c, 0x20, 0x31, 0x29, 0x2c,
    0x20, 0x6b, 0x77, 0x61, 0x72, 0x67, 0x73, 0x20, 0x3d, 0x20, 0x7b, 0x7d,
    0x29, 0x4a, 0x5d, 0x0a, 0x1a, 0x70, 0x6b, 0x67, 0x2e, 0x74, 0x6f, 0x72,
    0x63, 0x68, 0x2e, 0x6f, 0x6e, 0x6e, 0x78, 0x2e, 0x6e, 0x61, 0x6d, 0x65,
    0x5f, 0x73, 0x63, 0x6f, 0x70, 0x65, 0x73, 0x12, 0x3f, 0x5b, 0x27, 0x5f,
    0x65, 0x6d, 0x70, 0x74, 0x79, 0x5f, 0x6e, 0x6e, 0x5f, 0x6d, 0x6f, 0x64,
    0x75, 0x6c, 0x65, 0x5f, 0x73, 0x74, 0x61, 0x63, 0x6b, 0x5f, 0x66, 0x72,
    0x6f, 0x6d, 0x5f, 0x6d, 0x65, 0x74, 0x61, 0x64, 0x61, 0x74, 0x61, 0x5f,
    0x68, 0x6f, 0x6f, 0x6b, 0x27, 0x2c, 0x20, 0x27, 0x73, 0x79, 0x6d, 0x5f,
    0x73, 0x69, 0x7a, 0x65, 0x5f, 0x69, 0x6e, 0x74, 0x5f, 0x34, 0x27, 0x5d,
    0x4a, 0x73, 0x0a, 0x1a, 0x70, 0x6b, 0x67, 0x2e, 0x74, 0x6f, 0x72, 0x63,
    0x68, 0x2e, 0x6f, 0x6e, 0x6e, 0x78, 0x2e, 0x73, 0x74, 0x61, 0x63, 0x6b,
    0x5f, 0x74, 0x72, 0x61, 0x63, 0x65, 0x12, 0x55, 0x46, 0x69, 0x6c, 0x65,
    0x20, 0x22, 0x74, 0x6f, 0x72, 0x63, 0x68, 0x2f, 0x66, 0x78, 0x2f, 0x70,
    0x61, 0x73, 0x73, 0x65, 0x73, 0x2f, 0x72, 0x75, 0x6e, 0x74, 0x69, 0x6d,
    0x65, 0x5f, 0x61, 0x73, 0x73, 0x65, 0x72, 0x74, 0x2e, 0x70, 0x79, 0x22,
    0x2c, 0x20, 0x6c, 0x69, 0x6e, 0x65, 0x20, 0x32, 0x34, 0x2c, 0x20, 0x69,
    0x6e, 0x20, 0x69, 0x6e, 0x73, 0x65, 0x72, 0x74, 0x5f, 0x64, 0x65, 0x66,
    0x65, 0x72, 0x72, 0x65, 0x64, 0x5f, 0x72, 0x75, 0x6e, 0x74, 0x69, 0x6d,
    0x65, 0x5f, 0x61, 0x73, 0x73, 0x65, 0x72, 0x74, 0x73, 0x0a, 0x82, 0x05,
    0x0a, 0x05, 0x76, 0x61, 0x6c, 0x5f, 0x31, 0x12, 0x0e, 0x73, 0x79, 0x6d,
    0x5f, 0x73, 0x69, 0x7a, 0x65, 0x5f, 0x69, 0x6e, 0x74, 0x5f, 0x34, 0x1a,
    0x13, 0x6e, 0x6f, 0x64, 0x65, 0x5f, 0x73, 0x79, 0x6d, 0x5f, 0x73, 0x69,
    0x7a, 0x65, 0x5f, 0x69, 0x6e, 0x74, 0x5f, 0x34, 0x22, 0x07, 0x53, 0x71,
    0x75, 0x65, 0x65, 0x7a, 0x65, 0x4a, 0x83, 0x01, 0x0a, 0x09, 0x6e, 0x61,
    0x6d, 0x65, 0x73, 0x70, 0x61, 0x63, 0x65, 0x12, 0x76, 0x5f, 0x65, 0x6d,
    0x70, 0x74, 0x79, 0x5f, 0x6e, 0x6e, 0x5f, 0x6d, 0x6f, 0x64, 0x75, 0x6c,
    0x65, 0x5f, 0x73, 0x74, 0x61, 0x63, 0x6b, 0x5f, 0x66, 0x72, 0x6f, 0x6d,
    0x5f, 0x6d, 0x65, 0x74, 0x61, 0x64, 0x61, 0x74, 0x61, 0x5f, 0x68, 0x6f,
    0x6f, 0x6b, 0x3a, 0x20, 0x5f, 0x65, 0x6d, 0x70, 0x74, 0x79, 0x5f, 0x6e,
    0x6e, 0x5f, 0x6d, 0x6f, 0x64, 0x75, 0x6c, 0x65, 0x5f, 0x73, 0x74, 0x61,
    0x63, 0x6b, 0x5f, 0x66, 0x72, 0x6f, 0x6d, 0x5f, 0x6d, 0x65, 0x74, 0x61,
    0x64, 0x61, 0x74, 0x61, 0x5f, 0x68, 0x6f, 0x6f, 0x6b, 0x2f, 0x73, 0x79,
    0x6d, 0x5f, 0x73, 0x69, 0x7a, 0x65, 0x5f, 0x69, 0x6e, 0x74, 0x5f, 0x34,
    0x3a, 0x20, 0x61, 0x74, 0x65, 0x6e, 0x2e, 0x73, 0x79, 0x6d, 0x5f, 0x73,
    0x69, 0x7a, 0x65, 0x2e, 0x69, 0x6e, 0x74, 0x4a, 0x64, 0x0a, 0x1e, 0x70,
    0x6b, 0x67, 0x2e, 0x74, 0x6f, 0x72, 0x63, 0x68, 0x2e, 0x6f, 0x6e, 0x6e,
    0x78, 0x2e, 0x63, 0x6c, 0x61, 0x73, 0x73, 0x5f, 0x68, 0x69, 0x65, 0x72,
    0x61, 0x72, 0x63, 0x68, 0x79, 0x12, 0x42, 0x5b, 0x27, 0x5f, 0x65, 0x6d,
    0x70, 0x74, 0x79, 0x5f, 0x6e, 0x6e, 0x5f, 0x6d, 0x6f, 0x64, 0x75, 0x6c,
    0x65, 0x5f, 0x73, 0x74, 0x61, 0x63, 0x6b, 0x5f, 0x66, 0x72, 0x6f, 0x6d,
    0x5f, 0x6d, 0x65, 0x74, 0x61, 0x64, 0x61, 0x74, 0x61, 0x5f, 0x68, 0x6f,
    0x6f, 0x6b, 0x27, 0x2c, 0x20, 0x27, 0x61, 0x74, 0x65, 0x6e, 0x2e, 0x73,
    0x79, 0x6d, 0x5f, 0x73, 0x69, 0x7a, 0x65, 0x2e, 0x69, 0x6e, 0x74, 0x27,
    0x5d, 0x4a, 0x8a, 0x01, 0x0a, 0x16, 0x70, 0x6b, 0x67, 0x2e, 0x74, 0x6f,
    0x72, 0x63, 0x68, 0x2e, 0x6f, 0x6e, 0x6e, 0x78, 0x2e, 0x66, 0x78, 0x5f,
    0x6e, 0x6f, 0x64, 0x65, 0x12, 0x70, 0x25, 0x73, 0x79, 0x6d, 0x5f, 0x73,
    0x69, 0x7a, 0x65, 0x5f, 0x69, 0x6e, 0x74, 0x5f, 0x34, 0x20, 0x3a, 0x20,
    0x5b, 0x6e, 0x75, 0x6d, 0x5f, 0x75, 0x73, 0x65, 0x72, 0x73, 0x3d, 0x32,
    0x5d, 0x20, 0x3d, 0x20, 0x63, 0x61, 0x6c, 0x6c, 0x5f, 0x66, 0x75, 0x6e,
    0x63, 0x74, 0x69, 0x6f, 0x6e, 0x5b, 0x74, 0x61, 0x72, 0x67, 0x65, 0x74,
    0x3d, 0x74, 0x6f, 0x72, 0x63, 0x68, 0x2e, 0x6f, 0x70, 0x73, 0x2e, 0x61,
    0x74, 0x65, 0x6e, 0x2e, 0x73, 0x79, 0x6d, 0x5f, 0x73, 0x69, 0x7a, 0x65,
    0x2e, 0x69, 0x6e, 0x74, 0x5d, 0x28, 0x61, 0x72, 0x67, 0x73, 0x20, 0x3d,
    0x20, 0x28, 0x25, 0x78, 0x2c, 0x20, 0x31, 0x29, 0x2c, 0x20, 0x6b, 0x77,
    0x61, 0x72, 0x67, 0x73, 0x20, 0x3d, 0x20, 0x7b, 0x7d, 0x29, 0x4a, 0x5d,
    0x0a, 0x1a, 0x70, 0x6b, 0x67, 0x2e, 0x74, 0x6f, 0x72, 0x63, 0x68, 0x2e,
    0x6f, 0x6e, 0x6e, 0x78, 0x2e, 0x6e, 0x61, 0x6d, 0x65, 0x5f, 0x73, 0x63,
    0x6f, 0x70, 0x65, 0x73, 0x12, 0x3f, 0x5b, 0x27, 0x5f, 0x65, 0x6d, 0x70,
    0x74, 0x79, 0x5f, 0x6e, 0x6e, 0x5f, 0x6d, 0x6f, 0x64, 0x75, 0x6c, 0x65,
    0x5f, 0x73, 0x74, 0x61, 0x63, 0x6b, 0x5f, 0x66, 0x72, 0x6f, 0x6d, 0x5f,
    0x6d, 0x65, 0x74, 0x61, 0x64, 0x61, 0x74, 0x61, 0x5f, 0x68, 0x6f, 0x6f,
    0x6b, 0x27, 0x2c, 0x20, 0x27, 0x73, 0x79, 0x6d, 0x5f, 0x73, 0x69, 0x7a,
    0x65, 0x5f, 0x69, 0x6e, 0x74, 0x5f, 0x34, 0x27, 0x5d, 0x4a, 0x73, 0x0a,
    0x1a, 0x70, 0x6b, 0x67, 0x2e, 0x74, 0x6f, 0x72, 0x63, 0x68, 0x2e, 0x6f,
    0x6e, 0x6e, 0x78, 0x2e, 0x73, 0x74, 0x61, 0x63, 0x6b, 0x5f, 0x74, 0x72,
    0x61, 0x63, 0x65, 0x12, 0x55, 0x46, 0x69, 0x6c, 0x65, 0x20, 0x22, 0x74,
    0x6f, 0x72, 0x63, 0x68, 0x2f, 0x66, 0x78, 0x2f, 0x70, 0x61, 0x73, 0x73,
    0x65, 0x73, 0x2f, 0x72, 0x75, 0x6e, 0x74, 0x69, 0x6d, 0x65, 0x5f, 0x61,
    0x73, 0x73, 0x65, 0x72, 0x74, 0x2e, 0x70, 0x79, 0x22, 0x2c, 0x20, 0x6c,
    0x69, 0x6e, 0x65, 0x20, 0x32, 0x34, 0x2c, 0x20, 0x69, 0x6e, 0x20, 0x69,
    0x6e, 0x73, 0x65, 0x72, 0x74, 0x5f, 0x64, 0x65, 0x66, 0x65, 0x72, 0x72,
    0x65, 0x64, 0x5f, 0x72, 0x75, 0x6e, 0x74, 0x69, 0x6d, 0x65, 0x5f, 0x61,
    0x73, 0x73, 0x65, 0x72, 0x74, 0x73, 0x0a, 0xe6, 0x04, 0x0a, 0x0e, 0x73,
    0x79, 0x6d, 0x5f, 0x73, 0x69, 0x7a, 0x65, 0x5f, 0x69, 0x6e, 0x74, 0x5f,
    0x33, 0x0a, 0x0e, 0x73, 0x79, 0x6d, 0x5f, 0x73, 0x69, 0x7a, 0x65, 0x5f,
    0x69, 0x6e, 0x74, 0x5f, 0x34, 0x12, 0x03, 0x6d, 0x75, 0x6c, 0x1a, 0x08,
    0x6e, 0x6f, 0x64, 0x65, 0x5f, 0x6d, 0x75, 0x6c, 0x22, 0x03, 0x4d, 0x75,
    0x6c, 0x4a, 0x4c, 0x0a, 0x09, 0x6e, 0x61, 0x6d, 0x65, 0x73, 0x70, 0x61,
    0x63, 0x65, 0x12, 0x3f, 0x3a, 0x20, 0x73, 0x6c, 0x65, 0x65, 0x70, 0x5f,
    0x73, 0x74, 0x61, 0x67, 0x69, 0x6e, 0x67, 0x2e, 0x6d, 0x6f, 0x64, 0x65,
    0x6c, 0x73, 0x2e, 0x53, 0x74, 0x75, 0x64, 0x65, 0x6e, 0x74, 0x43, 0x52,
    0x4e, 0x4e, 0x2f, 0x6d, 0x75, 0x6c, 0x3a, 0x20, 0x3c, 0x62, 0x75, 0x69,
    0x6c, 0x74, 0x2d, 0x69, 0x6e, 0x20, 0x66, 0x75, 0x6e, 0x63, 0x74, 0x69,
    0x6f, 0x6e, 0x20, 0x6d, 0x75, 0x6c, 0x3e, 0x4a, 0x61, 0x0a, 0x1e, 0x70,
    0x6b, 0x67, 0x2e, 0x74, 0x6f, 0x72, 0x63, 0x68, 0x2e, 0x6f, 0x6e, 0x6e,
    0x78, 0x2e, 0x63, 0x6c, 0x61, 0x73, 0x73, 0x5f, 0x68, 0x69, 0x65, 0x72,
    0x61, 0x72, 0x63, 0x68, 0x79, 0x12, 0x3f, 0x5b, 0x27, 0x73, 0x6c, 0x65,
    0x65, 0x70, 0x5f, 0x73, 0x74, 0x61, 0x67, 0x69, 0x6e, 0x67, 0x2e, 0x6d,
    0x6f, 0x64, 0x65, 0x6c, 0x73, 0x2e, 0x53, 0x74, 0x75, 0x64, 0x65, 0x6e,
    0x74, 0x43, 0x52, 0x4e, 0x4e, 0x27, 0x2c, 0x20, 0x27, 0x3c, 0x62, 0x75,
    0x69, 0x6c, 0x74, 0x2d, 0x69, 0x6e, 0x20, 0x66, 0x75, 0x6e, 0x63, 0x74,
    0x69, 0x6f, 0x6e, 0x20, 0x6d, 0x75, 0x6c, 0x3e, 0x27, 0x5d, 0x4a, 0x8b,
    0x01, 0x0a, 0x16, 0x70, 0x6b, 0x67, 0x2e, 0x74, 0x6f, 0x72, 0x63, 0x68,
    0x2e, 0x6f, 0x6e, 0x6e, 0x78, 0x2e, 0x66, 0x78, 0x5f, 0x6e, 0x6f, 0x64,
    0x65, 0x12, 0x71, 0x25, 0x6d, 0x75, 0x6c, 0x20, 0x3a, 0x20, 0x5b, 0x6e,
    0x75, 0x6d, 0x5f, 0x75, 0x73, 0x65, 0x72, 0x73, 0x3d, 0x31, 0x5d, 0x20,
    0x3d, 0x20, 0x63, 0x61, 0x6c, 0x6c, 0x5f, 0x66, 0x75, 0x6e, 0x63, 0x74,
    0x69, 0x6f, 0x6e, 0x5b, 0x74, 0x61, 0x72, 0x67, 0x65, 0x74, 0x3d, 0x6f,
    0x70, 0x65, 0x72, 0x61, 0x74, 0x6f, 0x72, 0x2e, 0x6d, 0x75, 0x6c, 0x5d,
    0x28, 0x61, 0x72, 0x67, 0x73, 0x20, 0x3d, 0x20, 0x28, 0x25, 0x73, 0x79,
    0x6d, 0x5f, 0x73, 0x69, 0x7a, 0x65, 0x5f, 0x69, 0x6e, 0x74, 0x5f, 0x33,
    0x2c, 0x20, 0x25, 0x73, 0x79, 0x6d, 0x5f, 0x73, 0x69, 0x7a, 0x65, 0x5f,
    0x69, 0x6e, 0x74, 0x5f, 0x34, 0x29, 0x2c, 0x20, 0x6b, 0x77, 0x61, 0x72,
    0x67, 0x73, 0x20, 0x3d, 0x20, 0x7b, 0x7d, 0x29, 0x4a, 0x29, 0x0a, 0x1a,
    0x70, 0x6b, 0x67, 0x2e, 0x74, 0x6f, 0x72, 0x63, 0x68, 0x2e, 0x6f, 0x6e,
    0x6e, 0x78, 0x2e, 0x6e, 0x61, 0x6d, 0x65, 0x5f, 0x73, 0x63, 0x6f, 0x70,
    0x65, 0x73, 0x12, 0x0b, 0x5b, 0x27, 0x27, 0x2c, 0x20, 0x27, 0x6d, 0x75,
    0x6c, 0x27, 0x5d, 0x4a, 0xc5, 0x01, 0x0a, 0x1a, 0x70, 0x6b, 0x67, 0x2e,
    0x74, 0x6f, 0x72, 0x63, 0x68, 0x2e, 0x6f, 0x6e, 0x6e, 0x78, 0x2e, 0x73,
    0x74, 0x61, 0x63, 0x6b, 0x5f, 0x74, 0x72, 0x61, 0x63, 0x65, 0x12, 0xa6,
    0x01, 0x46, 0x69, 0x6c, 0x65, 0x20, 0x22, 0x43, 0x3a, 0x5c, 0x50, 0x72,
    0x6f, 0x6a, 0x65, 0x63, 0x74, 0x5c, 0x43, 0x4e, 0x4e, 0x2d, 0x45, 0x43,
    0x47, 0x5c, 0x73, 0x72, 0x63, 0x5c, 0x73, 0x6c, 0x65, 0x65, 0x70, 0x5f,
    0x73, 0x74, 0x61, 0x67, 0x69, 0x6e, 0x67, 0x5c, 0x6d, 0x6f, 0x64, 0x65,
    0x6c, 0x73, 0x2e, 0x70, 0x79, 0x22, 0x2c, 0x20, 0x6c, 0x69, 0x6e, 0x65,
    0x20, 0x31, 0x30, 0x34, 0x2c, 0x20, 0x69, 0x6e, 0x20, 0x66, 0x6f, 0x72,
    0x77, 0x61, 0x72, 0x64, 0x0a, 0x20, 0x20, 0x20, 0x20, 0x66, 0x65, 0x61,
    0x74, 0x73, 0x20, 0x3d, 0x20, 0x73, 0x65, 0x6c, 0x66, 0x2e, 0x63, 0x6e,
    0x6e, 0x28, 0x78, 0x2e, 0x76, 0x69, 0x65, 0x77, 0x28, 0x62, 0x73, 0x7a,
    0x20, 0x2a, 0x20, 0x73, 0x65, 0x71, 0x5f, 0x6c, 0x65, 0x6e, 0x2c, 0x20,
    0x63, 0x68, 0x61, 0x6e, 0x6e, 0x65, 0x6c, 0x73, 0x2c, 0x20, 0x66, 0x72,
    0x65, 0x71, 0x73, 0x2c, 0x20, 0x74, 0x69, 0x6d, 0x65, 0x73, 0x29, 0x29,
    0x2e, 0x76, 0x69, 0x65, 0x77, 0x28, 0x62, 0x73, 0x7a, 0x2c, 0x20, 0x73,
    0x65, 0x71, 0x5f, 0x6c, 0x65, 0x6e, 0x2c, 0x20, 0x36, 0x34, 0x29, 0x0a,
    0xeb, 0x04, 0x0a, 0x03, 0x6d, 0x75, 0x6c, 0x0a, 0x05, 0x76, 0x61, 0x6c,
    0x5f, 0x32, 0x12, 0x05, 0x76, 0x61, 0x6c, 0x5f, 0x33, 0x1a, 0x0e, 0x6e,
    0x6f, 0x64, 0x65, 0x5f, 0x52, 0x65, 0x73, 0x68, 0x61, 0x70, 0x65, 0x5f,
    0x33, 0x22, 0x07, 0x52, 0x65, 0x73, 0x68, 0x61, 0x70, 0x65, 0x2a, 0x10,
    0x0a, 0x09, 0x61, 0x6c, 0x6c, 0x6f, 0x77, 0x7a, 0x65, 0x72, 0x6f, 0x18,
    0x00, 0xa0, 0x01, 0x02, 0x4a, 0x47, 0x0a, 0x09, 0x6e, 0x61, 0x6d, 0x65,
    0x73, 0x70, 0x61, 0x63, 0x65, 0x12, 0x3a, 0x3a, 0x20, 0x73, 0x6c, 0x65,
    0x65, 0x70, 0x5f, 0x73, 0x74, 0x61, 0x67, 0x69, 0x6e, 0x67, 0x2e, 0x6d,
    0x6f, 0x64, 0x65, 0x6c, 0x73, 0x2e, 0x53, 0x74, 0x75, 0x64, 0x65, 0x6e,
    0x74, 0x43, 0x52, 0x4e, 0x4e, 0x2f, 0x76, 0x69, 0x65, 0x77, 0x3a, 0x20,
    0x61, 0x74, 0x65, 0x6e, 0x2e, 0x76, 0x69, 0x65, 0x77, 0x2e, 0x64, 0x65,
    0x66, 0x61, 0x75, 0x6c, 0x74, 0x4a, 0x5b, 0x0a, 0x1e, 0x70, 0x6b, 0x67,
    0x2e, 0x74, 0x6f, 0x72, 0x63, 0x68, 0x2e, 0x6f, 0x6e, 0x6e, 0x78, 0x2e,
    0x63, 0x6c, 0x61, 0x73, 0x73, 0x5f, 0x68, 0x69, 0x65, 0x72, 0x61, 0x72,
    0x63, 0x68, 0x79, 0x12, 0x39, 0x5b, 0x27, 0x73, 0x6c, 0x65, 0x65, 0x70,
    0x5f, 0x73, 0x74, 0x61, 0x67, 0x69, 0x6e, 0x67, 0x2e, 0x6d, 0x6f, 0x64,
    0x65, 0x6c, 0x73, 0x2e, 0x53, 0x74, 0x75, 0x64, 0x65, 0x6e, 0x74, 0x43,
    0x52, 0x4e, 0x4e, 0x27, 0x2c, 0x20, 0x27, 0x61, 0x74, 0x65, 0x6e, 0x2e,
    0x76, 0x69, 0x65, 0x77, 0x2e, 0x64, 0x65, 0x66, 0x61, 0x75, 0x6c, 0x74,
    0x27, 0x5d, 0x4a, 0x90, 0x01, 0x0a, 0x16, 0x70, 0x6b, 0x67, 0x2e, 0x74,
    0x6f, 0x72, 0x63, 0x68, 0x2e, 0x6f, 0x6e, 0x6e, 0x78, 0x2e, 0x66, 0x78,
    0x5f, 0x6e, 0x6f, 0x64, 0x65, 0x12, 0x76, 0x25, 0x76, 0x69, 0x65, 0x77,
    0x20, 0x3a, 0x20, 0x5b, 0x6e, 0x75, 0x6d, 0x5f, 0x75, 0x73, 0x65, 0x72,
    0x73, 0x3d, 0x31, 0x5d, 0x20, 0x3d, 0x20, 0x63, 0x61, 0x6c, 0x6c, 0x5f,
    0x66, 0x75, 0x6e, 0x63, 0x74, 0x69, 0x6f, 0x6e, 0x5b, 0x74, 0x61, 0x72,
    0x67, 0x65, 0x74, 0x3d, 0x74, 0x6f, 0x72, 0x63, 0x68, 0x2e, 0x6f, 0x70,
    0x73, 0x2e, 0x61, 0x74, 0x65, 0x6e, 0x2e, 0x76, 0x69, 0x65, 0x77, 0x2e,
    0x64, 0x65, 0x66, 0x61, 0x75, 0x6c, 0x74, 0x5d, 0x28, 0x61, 0x72, 0x67,
    0x73, 0x20, 0x3d, 0x20, 0x28, 0x25, 0x78, 0x2c, 0x20, 0x5b, 0x25, 0x6d,
    0x75, 0x6c, 0x2c, 0x20, 0x31, 0x2c, 0x20, 0x36, 0x39, 0x2c, 0x20, 0x32,
    0x39, 0x5d, 0x29, 0x2c, 0x20, 0x6b, 0x77, 0x61, 0x72, 0x67, 0x73, 0x20,
    0x3d, 0x20, 0x7b, 0x7d, 0x29, 0x4a, 0x2a, 0x0a, 0x1a, 0x70, 0x6b, 0x67,
    0x2e, 0x74, 0x6f, 0x72, 0x63, 0x68, 0x2e, 0x6f, 0x6e, 0x6e, 0x78, 0x2e,
    0x6e, 0x61, 0x6d, 0x65, 0x5f, 0x73, 0x63, 0x6f, 0x70, 0x65, 0x73, 0x12,
    0x0c, 0x5b, 0x27, 0x27, 0x2c, 0x20, 0x27, 0x76, 0x69, 0x65, 0x77, 0x27,
    0x5d, 0x4a, 0xc5, 0x01, 0x0a, 0x1a, 0x70, 0x6b, 0x67, 0x2e, 0x74, 0x6f,
    0x72, 0x63, 0x68, 0x2e, 0x6f, 0x6e, 0x6e, 0x78, 0x2e, 0x73, 0x74, 0x61,
    0x63, 0x6b, 0x5f, 0x74, 0x72, 0x61, 0x63, 0x65, 0x12, 0xa6, 0x01, 0x46,
    0x69, 0x6c, 0x65, 0x20, 0x22, 0x43, 0x3a, 0x5c, 0x50, 0x72, 0x6f, 0x6a,
    0x65, 0x63, 0x74, 0x5c, 0x43, 0x4e, 0x4e, 0x2d, 0x45, 0x43, 0x47, 0x5c,
    0x73, 0x72, 0x63, 0x5c, 0x73, 0x6c, 0x65, 0x65, 0x70, 0x5f, 0x73, 0x74,
    0x61, 0x67, 0x69, 0x6e, 0x67, 0x5c, 0x6d, 0x6f, 0x64, 0x65, 0x6c, 0x73,
    0x2e, 0x70, 0x79, 0x22, 0x2c, 0x20, 0x6c, 0x69, 0x6e, 0x65, 0x20, 0x31,
    0x30, 0x34, 0x2c, 0x20, 0x69, 0x6e, 0x20, 0x66, 0x6f, 0x72, 0x77, 0x61,
    0x72, 0x64, 0x0a, 0x20, 0x20, 0x20, 0x20, 0x66, 0x65, 0x61, 0x74, 0x73,
    0x20, 0x3d, 0x20, 0x73, 0x65, 0x6c, 0x66, 0x2e, 0x63, 0x6e, 0x6e, 0x28,
    0x78, 0x2e, 0x76, 0x69, 0x65, 0x77, 0x28, 0x62, 0x73, 0x7a, 0x20, 0x2a,
    0x20, 0x73, 0x65, 0x71, 0x5f, 0x6c, 0x65, 0x6e, 0x2c, 0x20, 0x63, 0x68,
    0x61, 0x6e, 0x6e, 0x65, 0x6c, 0x73, 0x2c, 0x20, 0x66, 0x72, 0x65, 0x71,
    0x73, 0x2c, 0x20, 0x74, 0x69, 0x6d, 0x65, 0x73, 0x29, 0x29, 0x2e, 0x76,
    0x69, 0x65, 0x77, 0x28, 0x62, 0x73, 0x7a, 0x2c, 0x20, 0x73, 0x65, 0x71,
    0x5f, 0x6c, 0x65, 0x6e, 0x2c, 0x20, 0x36, 0x34, 0x29, 0x0a, 0xf4, 0x04,
    0x0a, 0x05, 0x76, 0x61, 0x6c, 0x5f, 0x33, 0x0a, 0x05, 0x76, 0x61, 0x6c,
    0x5f, 0x34, 0x0a, 0x05, 0x76, 0x61, 0x6c, 0x5f, 0x35, 0x0a, 0x05, 0x76,
    0x61, 0x6c, 0x5f, 0x36, 0x12, 0x05, 0x76, 0x61, 0x6c, 0x5f, 0x37, 0x1a,
    0x0d, 0x6e, 0x6f, 0x64, 0x65, 0x5f, 0x43, 0x6f, 0x6e, 0x63, 0x61, 0x74,
    0x5f, 0x37, 0x22, 0x06, 0x43, 0x6f, 0x6e, 0x63, 0x61, 0x74, 0x2a, 0x0b,
    0x0a, 0x04, 0x61, 0x78, 0x69, 0x73, 0x18, 0x00, 0xa0, 0x01, 0x02, 0x4a,
    0x47, 0x0a, 0x09, 0x6e, 0x61, 0x6d, 0x65, 0x73, 0x70, 0x61, 0x63, 0x65,
    0x12, 0x3a, 0x3a, 0x20, 0x73, 0x6c, 0x65, 0x65, 0x70, 0x5f, 0x73, 0x74,
    0x61, 0x67, 0x69, 0x6e, 0x67, 0x2e, 0x6d, 0x6f, 0x64, 0x65, 0x6c, 0x73,
    0x2e, 0x53, 0x74, 0x75, 0x64, 0x65, 0x6e, 0x74, 0x43, 0x52, 0x4e, 0x4e,
    0x2f, 0x76, 0x69, 0x65, 0x77, 0x3a, 0x20, 0x61, 0x74, 0x65, 0x6e, 0x2e,
    0x76, 0x69, 0x65, 0x77, 0x2e, 0x64, 0x65, 0x66, 0x61, 0x75, 0x6c, 0x74,
    0x4a, 0x5b, 0x0a, 0x1e, 0x70, 0x6b, 0x67, 0x2e, 0x74, 0x6f, 0x72, 0x63,
    0x68, 0x2e, 0x6f, 0x6e, 0x6e, 0x78, 0x2e, 0x63, 0x6c, 0x61, 0x73, 0x73,
    0x5f, 0x68, 0x69, 0x65, 0x72, 0x61, 0x72, 0x63, 0x68, 0x79, 0x12, 0x39,
    0x5b, 0x27, 0x73, 0x6c, 0x65, 0x65, 0x70, 0x5f, 0x73, 0x74, 0x61, 0x67,
    0x69, 0x6e, 0x67, 0x2e, 0x6d, 0x6f, 0x64, 0x65, 0x6c, 0x73, 0x2e, 0x53,
    0x74, 0x75, 0x64, 0x65, 0x6e, 0x74, 0x43, 0x52, 0x4e, 0x4e, 0x27, 0x2c,
    0x20, 0x27, 0x61, 0x74, 0x65, 0x6e, 0x2e, 0x76, 0x69, 0x65, 0x77, 0x2e,
    0x64, 0x65, 0x66, 0x61, 0x75, 0x6c, 0x74, 0x27, 0x5d, 0x4a, 0x90, 0x01,
    0x0a, 0x16, 0x70, 0x6b, 0x67, 0x2e, 0x74, 0x6f, 0x72, 0x63, 0x68, 0x2e,
    0x6f, 0x6e, 0x6e, 0x78, 0x2e, 0x66, 0x78, 0x5f, 0x6e, 0x6f, 0x64, 0x65,
    0x12, 0x76, 0x25, 0x76, 0x69, 0x65, 0x77, 0x20, 0x3a, 0x20, 0x5b, 0x6e,
    0x75, 0x6d, 0x5f, 0x75, 0x73, 0x65, 0x72, 0x73, 0x3d, 0x31, 0x5d, 0x20,
    0x3d, 0x20, 0x63, 0x61, 0x6c, 0x6c, 0x5f, 0x66, 0x75, 0x6e, 0x63, 0x74,
    0x69, 0x6f, 0x6e, 0x5b, 0x74, 0x61, 0x72, 0x67, 0x65, 0x74, 0x3d, 0x74,
    0x6f, 0x72, 0x63, 0x68, 0x2e, 0x6f, 0x70, 0x73, 0x2e, 0x61, 0x74, 0x65,
    0x6e, 0x2e, 0x76, 0x69, 0x65, 0x77, 0x2e, 0x64, 0x65, 0x66, 0x61, 0x75,
    0x6c, 0x74, 0x5d, 0x28, 0x61, 0x72, 0x67, 0x73, 0x20, 0x3d, 0x20, 0x28,
    0x25, 0x78, 0x2c, 0x20, 0x5b, 0x25, 0x6d, 0x75, 0x6c, 0x2c, 0x20, 0x31,
    0x2c, 0x20, 0x36, 0x39, 0x2c, 0x20, 0x32, 0x39, 0x5d, 0x29, 0x2c, 0x20,
    0x6b, 0x77, 0x61, 0x72, 0x67, 0x73, 0x20, 0x3d, 0x20, 0x7b, 0x7d, 0x29,
    0x4a, 0x2a, 0x0a, 0x1a, 0x70, 0x6b, 0x67, 0x2e, 0x74, 0x6f, 0x72, 0x63,
    0x68, 0x2e, 0x6f, 0x6e, 0x6e, 0x78, 0x2e, 0x6e, 0x61, 0x6d, 0x65, 0x5f,
    0x73, 0x63, 0x6f, 0x70, 0x65, 0x73, 0x12, 0x0c, 0x5b, 0x27, 0x27, 0x2c,
    0x20, 0x27, 0x76, 0x69, 0x65, 0x77, 0x27, 0x5d, 0x4a, 0xc5, 0x01, 0x0a,
    0x1a, 0x70, 0x6b, 0x67, 0x2e, 0x74, 0x6f, 0x72, 0x63, 0x68, 0x2e, 0x6f,
    0x6e, 0x6e, 0x78, 0x2e, 0x73, 0x74, 0x61, 0x63, 0x6b, 0x5f, 0x74, 0x72,
    0x61, 0x63, 0x65, 0x12, 0xa6, 0x01, 0x46, 0x69, 0x6c, 0x65, 0x20, 0x22,
    0x43, 0x3a, 0x5c, 0x50, 0x72, 0x6f, 0x6a, 0x65, 0x63, 0x74, 0x5c, 0x43,
    0x4e, 0x4e, 0x2d, 0x45, 0x43, 0x47, 0x5c, 0x73, 0x72, 0x63, 0x5c, 0x73,
    0x6c, 0x65, 0x65, 0x70, 0x5f, 0x73, 0x74, 0x61, 0x67, 0x69, 0x6e, 0x67,
    0x5c, 0x6d, 0x6f, 0x64, 0x65, 0x6c, 0x73, 0x2e, 0x70, 0x79, 0x22, 0x2c,
    0x20, 0x6c, 0x69, 0x6e, 0x65, 0x20, 0x31, 0x30, 0x34, 0x2c, 0x20, 0x69,
    0x6e, 0x20, 0x66, 0x6f, 0x72, 0x77, 0x61, 0x72, 0x64, 0x0a, 0x20, 0x20,
    0x20, 0x20, 0x66, 0x65, 0x61, 0x74, 0x73, 0x20, 0x3d, 0x20, 0x73, 0x65,
    0x6c, 0x66, 0x2e, 0x63, 0x6e, 0x6e, 0x28, 0x78, 0x2e, 0x76, 0x69, 0x65,
    0x77, 0x28, 0x62, 0x73, 0x7a, 0x20, 0x2a, 0x20, 0x73, 0x65, 0x71, 0x5f,
    0x6c, 0x65, 0x6e, 0x2c, 0x20, 0x63, 0x68, 0x61, 0x6e, 0x6e, 0x65, 0x6c,
    0x73, 0x2c, 0x20, 0x66, 0x72, 0x65, 0x71, 0x73, 0x2c, 0x20, 0x74, 0x69,
    0x6d, 0x65, 0x73, 0x29, 0x29, 0x2e, 0x76, 0x69, 0x65, 0x77, 0x28, 0x62,
    0x73, 0x7a, 0x2c, 0x20, 0x73, 0x65, 0x71, 0x5f, 0x6c, 0x65, 0x6e, 0x2c,
    0x20, 0x36, 0x34, 0x29, 0x0a, 0xed, 0x04, 0x0a, 0x0b, 0x73, 0x70, 0x65,
    0x63, 0x74, 0x72, 0x6f, 0x67, 0x72, 0x61, 0x6d, 0x0a, 0x05, 0x76, 0x61,
    0x6c, 0x5f, 0x37, 0x12, 0x04, 0x76, 0x69, 0x65, 0x77, 0x1a, 0x09, 0x6e,
    0x6f, 0x64, 0x65, 0x5f, 0x76, 0x69, 0x65, 0x77, 0x22, 0x07, 0x52, 0x65,
    0x73, 0x68, 0x61, 0x70, 0x65, 0x2a, 0x10, 0x0a, 0x09, 0x61, 0x6c, 0x6c,
    0x6f, 0x77, 0x7a, 0x65, 0x72, 0x6f, 0x18, 0x01, 0xa0, 0x01, 0x02, 0x4a,
    0x47, 0x0a, 0x09, 0x6e, 0x61, 0x6d, 0x65, 0x73, 0x70, 0x61, 0x63, 0x65,
    0x12, 0x3a, 0x3a, 0x20, 0x73, 0x6c, 0x65, 0x65, 0x70, 0x5f, 0x73, 0x74,
    0x61, 0x67, 0x69, 0x6e, 0x67, 0x2e, 0x6d, 0x6f, 0x64, 0x65, 0x6c, 0x73,
    0x2e, 0x53, 0x74, 0x75, 0x64, 0x65, 0x6e, 0x74, 0x43, 0x52, 0x4e, 0x4e,
    0x2f, 0x76, 0x69, 0x65, 0x77, 0x3a, 0x20, 0x61, 0x74, 0x65, 0x6e, 0x2e,
    0x76, 0x69, 0x65, 0x77, 0x2e, 0x64, 0x65, 0x66, 0x61, 0x75, 0x6c, 0x74,
    0x4a, 0x5b, 0x0a, 0x1e, 0x70, 0x6b, 0x67, 0x2e, 0x74, 0x6f, 0x72, 0x63,
    0x68, 0x2e, 0x6f, 0x6e, 0x6e, 0x78, 0x2e, 0x63, 0x6c, 0x61, 0x73, 0x73,
    0x5f, 0x68, 0x69, 0x65, 0x72, 0x61, 0x72, 0x63, 0x68, 0x79, 0x12, 0x39,
    0x5b, 0x27, 0x73, 0x6c, 0x65, 0x65, 0x70, 0x5f, 0x73, 0x74, 0x61, 0x67,
    0x69, 0x6e, 0x67, 0x2e, 0x6d, 0x6f, 0x64, 0x65, 0x6c, 0x73, 0x2e, 0x53,
    0x74, 0x75, 0x64, 0x65, 0x6e, 0x74, 0x43, 0x52, 0x4e, 0x4e, 0x27, 0x2c,
    0x20, 0x27, 0x61, 0x74, 0x65, 0x6e, 0x2e, 0x76, 0x69, 0x65, 0x77, 0x2e,
    0x64, 0x65, 0x66, 0x61, 0x75, 0x6c, 0x74, 0x27, 0x5d, 0x4a, 0x90, 0x01,
    0x0a, 0x16, 0x70, 0x6b, 0x67, 0x2e, 0x74, 0x6f, 0x72, 0x63, 0x68, 0x2e,
    0x6f, 0x6e, 0x6e, 0x78, 0x2e, 0x66, 0x78, 0x5f, 0x6e, 0x6f, 0x64, 0x65,
    0x12, 0x76, 0x25, 0x76, 0x69, 0x65, 0x77, 0x20, 0x3a, 0x20, 0x5b, 0x6e,
    0x75, 0x6d, 0x5f, 0x75, 0x73, 0x65, 0x72, 0x73, 0x3d, 0x31, 0x5d, 0x20,
    0x3d, 0x20, 0x63, 0x61, 0x6c, 0x6c, 0x5f, 0x66, 0x75, 0x6e, 0x63, 0x74,
    0x69, 0x6f, 0x6e, 0x5b, 0x74, 0x61, 0x72, 0x67, 0x65, 0x74, 0x3d, 0x74,
    0x6f, 0x72, 0x63, 0x68, 0x2e, 0x6f, 0x70, 0x73, 0x2e, 0x61, 0x74, 0x65,
    0x6e, 0x2e, 0x76, 0x69, 0x65, 0x77, 0x2e, 0x64, 0x65, 0x66, 0x61, 0x75,
    0x6c, 0x74, 0x5d, 0x28, 0x61, 0x72, 0x67, 0x73, 0x20, 0x3d, 0x20, 0x28,
    0x25, 0x78, 0x2c, 0x20, 0x5b, 0x25, 0x6d, 0x75, 0x6c, 0x2c, 0x20, 0x31,
    0x2c, 0x20, 0x36, 0x39, 0x2c, 0x20, 0x32, 0x39, 0x5d, 0x29, 0x2c, 0x20,
    0x6b, 0x77, 0x61, 0x72, 0x67, 0x73, 0x20, 0x3d, 0x20, 0x7b, 0x7d, 0x29,
    0x4a, 0x2a, 0x0a, 0x1a, 0x70, 0x6b, 0x67, 0x2e, 0x74, 0x6f, 0x72, 0x63,
    0x68, 0x2e, 0x6f, 0x6e, 0x6e, 0x78, 0x2e, 0x6e, 0x61, 0x6d, 0x65, 0x5f,
    0x73, 0x63, 0x6f, 0x70, 0x65, 0x73, 0x12, 0x0c, 0x5b, 0x27, 0x27, 0x2c,
    0x20, 0x27, 0x76, 0x69, 0x65, 0x77, 0x27, 0x5d, 0x4a, 0xc5, 0x01, 0x0a,
    0x1a, 0x70, 0x6b, 0x67, 0x2e, 0x74, 0x6f, 0x72, 0x63, 0x68, 0x2e, 0x6f,
    0x6e, 0x6e, 0x78, 0x2e, 0x73, 0x74, 0x61, 0x63, 0x6b, 0x5f, 0x74, 0x72,
    0x61, 0x63, 0x65, 0x12, 0xa6, 0x01, 0x46, 0x69, 0x6c, 0x65, 0x20, 0x22,
    0x43, 0x3a, 0x5c, 0x50, 0x72, 0x6f, 0x6a, 0x65, 0x63, 0x74, 0x5c, 0x43,
    0x4e, 0x4e, 0x2d, 0x45, 0x43, 0x47, 0x5c, 0x73, 0x72, 0x63, 0x5c, 0x73,
    0x6c, 0x65, 0x65, 0x70, 0x5f, 0x73, 0x74, 0x61, 0x67, 0x69, 0x6e, 0x67,
    0x5c, 0x6d, 0x6f, 0x64, 0x65, 0x6c, 0x73, 0x2e, 0x70, 0x79, 0x22, 0x2c,
    0x20, 0x6c, 0x69, 0x6e, 0x65, 0x20, 0x31, 0x30, 0x34, 0x2c, 0x20, 0x69,
    0x6e, 0x20, 0x66, 0x6f, 0x72, 0x77, 0x61, 0x72, 0x64, 0x0a, 0x20, 0x20,
    0x20, 0x20, 0x66, 0x65, 0x61, 0x74, 0x73, 0x20, 0x3d, 0x20, 0x73, 0x65,
    0x6c, 0x66, 0x2e, 0x63, 0x6e, 0x6e, 0x28, 0x78, 0x2e, 0x76, 0x69, 0x65,
    0x77, 0x28, 0x62, 0x73, 0x7a, 0x20, 0x2a, 0x20, 0x73, 0x65, 0x71, 0x5f,
    0x6c, 0x65, 0x6e, 0x2c, 0x20, 0x63, 0x68, 0x61, 0x6e, 0x6e, 0x65, 0x6c,
    0x73, 0x2c, 0x20, 0x66, 0x72, 0x65, 0x71, 0x73, 0x2c, 0x20, 0x74, 0x69,
    0x6d, 0x65, 0x73, 0x29, 0x29, 0x2e, 0x76, 0x69, 0x65, 0x77, 0x28, 0x62,
    0x73, 0x7a, 0x2c, 0x20, 0x73, 0x65, 0x71, 0x5f, 0x6c, 0x65, 0x6e, 0x2c,
    0x20, 0x36, 0x34, 0x29, 0x0a, 0xb7, 0x0d, 0x0a, 0x04, 0x76, 0x69, 0x65,
    0x77, 0x0a, 0x0c, 0x63, 0x6e, 0x6e, 0x2e, 0x30, 0x2e, 0x77, 0x65, 0x69,
    0x67, 0x68, 0x74, 0x0a, 0x11, 0x63, 0x6e, 0x6e, 0x2e, 0x30, 0x2e, 0x77,
    0x65, 0x69, 0x67, 0x68, 0x74, 0x5f, 0x62, 0x69, 0x61, 0x73, 0x12, 0x07,
    0x67, 0x65, 0x74, 0x69, 0x74, 0x65, 0x6d, 0x1a, 0x0d, 0x6e, 0x6f, 0x64,
    0x65, 0x5f, 0x43, 0x6f, 0x6e, 0x76, 0x5f, 0x31, 0x37, 0x30, 0x22, 0x04,
    0x43, 0x6f, 0x6e, 0x76, 0x2a, 0x15, 0x0a, 0x08, 0x61, 0x75, 0x74, 0x6f,
    0x5f, 0x70, 0x61, 0x64, 0x22, 0x06, 0x4e, 0x4f, 0x54, 0x53, 0x45, 0x54,
    0xa0, 0x01, 0x03, 0x2a, 0x12, 0x0a, 0x09, 0x64, 0x69, 0x6c, 0x61, 0x74,
    0x69, 0x6f, 0x6e, 0x73, 0x40, 0x01, 0x40, 0x01, 0xa0, 0x01, 0x07, 0x2a,
    0x0c, 0x0a, 0x05, 0x67, 0x72, 0x6f, 0x75, 0x70, 0x18, 0x01, 0xa0, 0x01,
    0x02, 0x2a, 0x11, 0x0a, 0x04, 0x70, 0x61, 0x64, 0x73, 0x40, 0x03, 0x40,
    0x00, 0x40, 0x03, 0x40, 0x00, 0xa0, 0x01, 0x07, 0x2a, 0x10, 0x0a, 0x07,
    0x73, 0x74, 0x72, 0x69, 0x64, 0x65, 0x73, 0x40, 0x01, 0x40, 0x01, 0xa0,
    0x01, 0x07, 0x4a, 0xe1, 0x01, 0x0a, 0x09, 0x6e, 0x61, 0x6d, 0x65, 0x73,
    0x70, 0x61, 0x63, 0x65, 0x12, 0xd3, 0x01, 0x3a, 0x20, 0x73, 0x6c, 0x65,
    0x65, 0x70, 0x5f, 0x73, 0x74, 0x61, 0x67, 0x69, 0x6e, 0x67, 0x2e, 0x6d,
    0x6f, 0x64, 0x65, 0x6c, 0x73, 0x2e, 0x53, 0x74, 0x75, 0x64, 0x65, 0x6e,
    0x74, 0x43, 0x52, 0x4e, 0x4e, 0x2f, 0x63, 0x6e, 0x6e, 0x3a, 0x20, 0x74,
    0x6f, 0x72, 0x63, 0x68, 0x2e, 0x6e, 0x6e, 0x2e, 0x6d, 0x6f, 0x64, 0x75,
    0x6c, 0x65, 0x73, 0x2e, 0x63, 0x6f, 0x6e, 0x74, 0x61, 0x69, 0x6e, 0x65,
    0x72, 0x2e, 0x53, 0x65, 0x71, 0x75, 0x65, 0x6e, 0x74, 0x69, 0x61, 0x6c,
    0x2f, 0x63, 0x6e, 0x6e, 0x2e, 0x31, 0x3a, 0x20, 0x74, 0x6f, 0x72, 0x63,
    0x68, 0x2e, 0x6e, 0x6e, 0x2e, 0x6d, 0x6f, 0x64, 0x75, 0x6c, 0x65, 0x73,
    0x2e, 0x62, 0x61, 0x74, 0x63, 0x68, 0x6e, 0x6f, 0x72, 0x6d, 0x2e, 0x42,
    0x61, 0x74, 0x63, 0x68, 0x4e, 0x6f, 0x72, 0x6d, 0x32, 0x64, 0x2f, 0x5f,
    0x6e, 0x61, 0x74, 0x69, 0x76, 0x65, 0x5f, 0x62, 0x61, 0x74, 0x63, 0x68,
    0x5f, 0x6e, 0x6f, 0x72, 0x6d, 0x5f, 0x6c, 0x65, 0x67, 0x69, 0x74, 0x5f,
    0x6e, 0x6f, 0x5f, 0x74, 0x72, 0x61, 0x69, 0x6e, 0x69, 0x6e, 0x67, 0x3a,
    0x20, 0x61, 0x74, 0x65, 0x6e, 0x2e, 0x5f, 0x6e, 0x61, 0x74, 0x69, 0x76,
    0x65, 0x5f, 0x62, 0x61, 0x74, 0x63, 0x68, 0x5f, 0x6e, 0x6f, 0x72, 0x6d,
    0x5f, 0x6c, 0x65, 0x67, 0x69, 0x74, 0x5f, 0x6e, 0x6f, 0x5f, 0x74, 0x72,
    0x61, 0x69, 0x6e, 0x69, 0x6e, 0x67, 0x2e, 0x64, 0x65, 0x66, 0x61, 0x75,
    0x6c, 0x74, 0x4a, 0x56, 0x0a, 0x21, 0x70, 0x6b, 0x67, 0x2e, 0x6f, 0x6e,
    0x6e, 0x78, 0x73, 0x63, 0x72, 0x69, 0x70, 0x74, 0x2e, 0x72, 0x65, 0x77,
    0x72, 0x69, 0x74, 0x65, 0x72, 0x2e, 0x72, 0x75, 0x6c, 0x65, 0x5f, 0x6e,
    0x61, 0x6d, 0x65, 0x12, 0x31, 0x46, 0x75, 0x73, 0x65, 0x42, 0x61, 0x74,
    0x63, 0x68, 0x4e, 0x6f, 0x72, 0x6d, 0x49, 0x6e, 0x74, 0x6f, 0x43, 0x6f,
    0x6e, 0x76, 0x2c, 0x20, 0x52, 0x65, 0x6d, 0x6f, 0x76, 0x65, 0x4f, 0x70,
    0x74, 0x69, 0x6f, 0x6e, 0x61, 0x6c, 0x42, 0x69, 0x61, 0x73, 0x46, 0x72,
    0x6f, 0x6d, 0x43, 0x6f, 0x6e, 0x76, 0x4a, 0xcf, 0x01, 0x0a, 0x1e, 0x70,
    0x6b, 0x67, 0x2e, 0x74, 0x6f, 0x72, 0x63, 0x68, 0x2e, 0x6f, 0x6e, 0x6e,
    0x78, 0x2e, 0x63, 0x6c, 0x61, 0x73, 0x73, 0x5f, 0x68, 0x69, 0x65, 0x72,
    0x61, 0x72, 0x63, 0x68, 0x79, 0x12, 0xac, 0x01, 0x5b, 0x27, 0x73, 0x6c,
    0x65, 0x65, 0x70, 0x5f, 0x73, 0x74, 0x61, 0x67, 0x69, 0x6e, 0x67, 0x2e,
    0x6d, 0x6f, 0x64, 0x65, 0x6c, 0x73, 0x2e, 0x53, 0x74, 0x75, 0x64, 0x65,
    0x6e, 0x74, 0x43, 0x52, 0x4e, 0x4e, 0x27, 0x2c, 0x20, 0x27, 0x74, 0x6f,
    0x72, 0x63, 0x68, 0x2e, 0x6e, 0x6e, 0x2e, 0x6d, 0x6f, 0x64, 0x75, 0x6c,
    0x65, 0x73, 0x2e, 0x63, 0x6f, 0x6e, 0x74, 0x61, 0x69, 0x6e, 0x65, 0x72,
    0x2e, 0x53, 0x65, 0x71, 0x75, 0x65, 0x6e, 0x74, 0x69, 0x61, 0x6c, 0x27,
    0x2c, 0x20, 0x27, 0x74, 0x6f, 0x72, 0x63, 0x68, 0x2e, 0x6e, 0x6e, 0x2e,
    0x6d, 0x6f, 0x64, 0x75, 0x6c, 0x65, 0x73, 0x2e, 0x62, 0x61, 0x74, 0x63,
    0x68, 0x6e, 0x6f, 0x72, 0x6d, 0x2e, 0x42, 0x61, 0x74, 0x63, 0x68, 0x4e,
    0x6f, 0x72, 0x6d, 0x32, 0x64, 0x27, 0x2c, 0x20, 0x27, 0x61, 0x74, 0x65,
    0x6e, 0x2e, 0x5f, 0x6e, 0x61, 0x74, 0x69, 0x76, 0x65, 0x5f, 0x62, 0x61,
    0x74, 0x63, 0x68, 0x5f, 0x6e, 0x6f, 0x72, 0x6d, 0x5f, 0x6c, 0x65, 0x67,
    0x69, 0x74, 0x5f, 0x6e, 0x6f, 0x5f, 0x74, 0x72, 0x61, 0x69, 0x6e, 0x69,
    0x6e, 0x67, 0x2e, 0x64, 0x65, 0x66, 0x61, 0x75, 0x6c, 0x74, 0x27, 0x5d,
    0x4a, 0x9c, 0x02, 0x0a, 0x16, 0x70, 0x6b, 0x67, 0x2e, 0x74, 0x6f, 0x72,
    0x63, 0x68, 0x2e, 0x6f, 0x6e, 0x6e, 0x78, 0x2e, 0x66, 0x78, 0x5f, 0x6e,
    0x6f, 0x64, 0x65, 0x12, 0x81, 0x02, 0x25, 0x5f, 0x6e, 0x61, 0x74, 0x69,
    0x76, 0x65, 0x5f, 0x62, 0x61, 0x74, 0x63, 0x68, 0x5f, 0x6e, 0x6f, 0x72,
    0x6d, 0x5f, 0x6c, 0x65, 0x67, 0x69, 0x74, 0x5f, 0x6e, 0x6f, 0x5f, 0x74,
    0x72, 0x61, 0x69, 0x6e, 0x69, 0x6e, 0x67, 0x20, 0x3a, 0x20, 0x5b, 0x6e,
    0x75, 0x6d, 0x5f, 0x75, 0x73, 0x65, 0x72, 0x73, 0x3d, 0x31, 0x5d, 0x20,
    0x3d, 0x20, 0x63, 0x61, 0x6c, 0x6c, 0x5f, 0x66, 0x75, 0x6e, 0x63, 0x74,
    0x69, 0x6f, 0x6e, 0x5b, 0x74, 0x61, 0x72, 0x67, 0x65, 0x74, 0x3d, 0x74,
    0x6f, 0x72, 0x63, 0x68, 0x2e, 0x6f, 0x70, 0x73, 0x2e, 0x61, 0x74, 0x65,
    0x6e, 0x2e, 0x5f, 0x6e, 0x61, 0x74, 0x69, 0x76, 0x65, 0x5f, 0x62, 0x61,
    0x74, 0x63, 0x68, 0x5f, 0x6e, 0x6f, 0x72, 0x6d, 0x5f, 0x6c, 0x65, 0x67,
    0x69, 0x74, 0x5f, 0x6e, 0x6f, 0x5f, 0x74, 0x72, 0x61, 0x69, 0x6e, 0x69,
    0x6e, 0x67, 0x2e, 0x64, 0x65, 0x66, 0x61, 0x75, 0x6c, 0x74, 0x5d, 0x28,
    0x61, 0x72, 0x67, 0x73, 0x20, 0x3d, 0x20, 0x28, 0x25, 0x63, 0x6f, 0x6e,
    0x76, 0x32, 0x64, 0x2c, 0x20, 0x25, 0x70, 0x5f, 0x63, 0x6e, 0x6e, 0x5f,
    0x31, 0x5f, 0x77, 0x65, 0x69, 0x67, 0x68, 0x74, 0x2c, 0x20, 0x25, 0x70,
    0x5f, 0x63, 0x6e, 0x6e, 0x5f, 0x31, 0x5f, 0x62, 0x69, 0x61, 0x73, 0x2c,
    0x20, 0x25, 0x62, 0x5f, 0x63, 0x6e, 0x6e, 0x5f, 0x31, 0x5f, 0x72, 0x75,
    0x6e, 0x6e, 0x69, 0x6e, 0x67, 0x5f, 0x6d, 0x65, 0x61, 0x6e, 0x2c, 0x20,
    0x25, 0x62, 0x5f, 0x63, 0x6e, 0x6e, 0x5f, 0x31, 0x5f, 0x72, 0x75, 0x6e,
    0x6e, 0x69, 0x6e, 0x67, 0x5f, 0x76, 0x61, 0x72, 0x2c, 0x20, 0x30, 0x2e,
    0x31, 0x2c, 0x20, 0x31, 0x65, 0x2d, 0x30, 0x35, 0x29, 0x2c, 0x20, 0x6b,
    0x77, 0x61, 0x72, 0x67, 0x73, 0x20, 0x3d, 0x20, 0x7b, 0x7d, 0x29, 0x4a,
    0x5a, 0x0a, 0x1a, 0x70, 0x6b, 0x67, 0x2e, 0x74, 0x6f, 0x72, 0x63, 0x68,
    0x2e, 0x6f, 0x6e, 0x6e, 0x78, 0x2e, 0x6e, 0x61, 0x6d, 0x65, 0x5f, 0x73,
    0x63, 0x6f, 0x70, 0x65, 0x73, 0x12, 0x3c, 0x5b, 0x27, 0x27, 0x2c, 0x20,
    0x27, 0x63, 0x6e, 0x6e, 0x27, 0x2c, 0x20, 0x27, 0x63, 0x6e, 0x6e, 0x2e,
    0x31, 0x27, 0x2c, 0x20, 0x27, 0x5f, 0x6e, 0x61, 0x74, 0x69, 0x76, 0x65,
    0x5f, 0x62, 0x61, 0x74, 0x63, 0x68, 0x5f, 0x6e, 0x6f, 0x72, 0x6d, 0x5f,
    0x6c, 0x65, 0x67, 0x69, 0x74, 0x5f, 0x6e, 0x6f, 0x5f, 0x74, 0x72, 0x61,
    0x69, 0x6e, 0x69, 0x6e, 0x67, 0x27, 0x5d, 0x4a, 0x88, 0x05, 0x0a, 0x1a,
    0x70, 0x6b, 0x67, 0x2e, 0x74, 0x6f, 0x72, 0x63, 0x68, 0x2e, 0x6f, 0x6e,
    0x6e, 0x78, 0x2e, 0x73, 0x74, 0x61, 0x63, 0x6b, 0x5f, 0x74, 0x72, 0x61,
    0x63, 0x65, 0x12, 0xe9, 0x04, 0x46, 0x69, 0x6c, 0x65, 0x20, 0x22, 0x43,
    0x3a, 0x5c, 0x50, 0x72, 0x6f, 0x6a, 0x65, 0x63, 0x74, 0x5c, 0x43, 0x4e,
    0x4e, 0x2d, 0x45, 0x43, 0x47, 0x5c, 0x73, 0x72, 0x63, 0x5c, 0x73, 0x6c,
    0x65, 0x65, 0x70, 0x5f, 0x73, 0x74, 0x61, 0x67, 0x69, 0x6e, 0x67, 0x5c,
    0x6d, 0x6f, 0x64, 0x65, 0x6c, 0x73, 0x2e, 0x70, 0x79, 0x22, 0x2c, 0x20,
    0x6c, 0x69, 0x6e, 0x65, 0x20, 0x31, 0x30, 0x34, 0x2c, 0x20, 0x69, 0x6e,
    0x20, 0x66, 0x6f, 0x72, 0x77, 0x61, 0x72, 0x64, 0x0a, 0x20, 0x20, 0x20,
    0x20, 0x66, 0x65, 0x61, 0x74, 0x73, 0x20, 0x3d, 0x20, 0x73, 0x65, 0x6c,
    0x66, 0x2e, 0x63, 0x6e, 0x6e, 0x28, 0x78, 0x2e, 0x76, 0x69, 0x65, 0x77,
    0x28, 0x62, 0x73, 0x7a, 0x20, 0x2a, 0x20, 0x73, 0x65, 0x71, 0x5f, 0x6c,
    0x65, 0x6e, 0x2c, 0x20, 0x63, 0x68, 0x61, 0x6e, 0x6e, 0x65, 0x6c, 0x73,
    0x2c, 0x20, 0x66, 0x72, 0x65, 0x71, 0x73, 0x2c, 0x20, 0x74, 0x69, 0x6d,
    0x65, 0x73, 0x29, 0x29, 0x2e, 0x76, 0x69, 0x65, 0x77, 0x28, 0x62, 0x73,
    0x7a, 0x2c, 0x20, 0x73, 0x65, 0x71, 0x5f, 0x6c, 0x65, 0x6e, 0x2c, 0x20,
    0x36, 0x34, 0x29, 0x0a, 0x20, 0x20, 0x46, 0x69, 0x6c, 0x65, 0x20, 0x22,
    0x43, 0x3a, 0x5c, 0x55, 0x73, 0x65, 0x72, 0x73, 0x5c, 0x73, 0x68, 0x61,
    0x6d, 0x69, 0x5c, 0x41, 0x70, 0x70, 0x44, 0x61, 0x74, 0x61, 0x5c, 0x4c,
    0x6f, 0x63, 0x61, 0x6c, 0x5c, 0x50, 0x61, 0x63, 0x6b, 0x61, 0x67, 0x65,
    0x73, 0x5c, 0x50, 0x79, 0x74, 0x68, 0x6f, 0x6e, 0x53, 0x6f, 0x66, 0x74,
    0x77, 0x61, 0x72, 0x65, 0x46, 0x6f, 0x75, 0x6e, 0x64, 0x61, 0x74, 0x69,
    0x6f, 0x6e, 0x2e, 0x50, 0x79, 0x74, 0x68, 0x6f, 0x6e, 0x2e, 0x33, 0x2e,
    0x31, 0x31, 0x5f, 0x71, 0x62, 0x7a, 0x35, 0x6e, 0x32, 0x6b, 0x66, 0x72,
    0x61, 0x38, 0x70, 0x30, 0x5c, 0x4c, 0x6f, 0x63, 0x61, 0x6c, 0x43, 0x61,
    0x63, 0x68, 0x65, 0x5c, 0x6c, 0x6f, 0x63, 0x61, 0x6c, 0x2d, 0x70, 0x61,
    0x63, 0x6b, 0x61, 0x67, 0x65, 0x73, 0x5c, 0x50, 0x79, 0x74, 0x68, 0x6f,
    0x6e, 0x33, 0x31, 0x31, 0x5c, 0x73, 0x69, 0x74, 0x65, 0x2d, 0x70, 0x61,
    0x63, 0x6b, 0x61, 0x67, 0x65, 0x73, 0x5c, 0x74, 0x6f, 0x72, 0x63, 0x68,
    0x5c, 0x6e, 0x6e, 0x5c, 0x6d, 0x6f, 0x64, 0x75, 0x6c, 0x65, 0x73, 0x5c,
    0x63, 0x6f, 0x6e, 0x74, 0x61, 0x69, 0x6e, 0x65, 0x72, 0x2e, 0x70, 0x79,
    0x22, 0x2c, 0x20, 0x6c, 0x69, 0x6e, 0x65, 0x20, 0x32, 0x35, 0x30, 0x2c,
    0x20, 0x69, 0x6e, 0x20, 0x66, 0x6f, 0x72, 0x77, 0x61, 0x72, 0x64, 0x0a,
    0x20, 0x20, 0x20, 0x20, 0x69, 0x6e, 0x70, 0x75, 0x74, 0x20, 0x3d, 0x20,
    0x6d, 0x6f, 0x64, 0x75, 0x6c, 0x65, 0x28, 0x69, 0x6e, 0x70, 0x75, 0x74,
    0x29, 0x0a, 0x20, 0x20, 0x46, 0x69, 0x6c, 0x65, 0x20, 0x22, 0x43, 0x3a,
    0x5c, 0x55, 0x73, 0x65, 0x72, 0x73, 0x5c, 0x73, 0x68, 0x61, 0x6d, 0x69,
    0x5c, 0x41, 0x70, 0x70, 0x44, 0x61, 0x74, 0x61, 0x5c, 0x4c, 0x6f, 0x63,
    0x61, 0x6c, 0x5c, 0x50, 0x61, 0x63, 0x6b, 0x61, 0x67, 0x65, 0x73, 0x5c,
    0x50, 0x79, 0x74, 0x68, 0x6f, 0x6e, 0x53, 0x6f, 0x66, 0x74, 0x77, 0x61,
    0x72, 0x65, 0x46, 0x6f, 0x75, 0x6e, 0x64, 0x61, 0x74, 0x69, 0x6f, 0x6e,
    0x2e, 0x50, 0x79, 0x74, 0x68, 0x6f, 0x6e, 0x2e, 0x33, 0x2e, 0x31, 0x31,
    0x5f, 0x71, 0x62, 0x7a, 0x35, 0x6e, 0x32, 0x6b, 0x66, 0x72, 0x61, 0x38,
    0x70, 0x30, 0x5c, 0x4c, 0x6f, 0x63, 0x61, 0x6c, 0x43, 0x61, 0x63, 0x68,
    0x65, 0x5c, 0x6c, 0x6f, 0x63, 0x61, 0x6c, 0x2d, 0x70, 0x61, 0x63, 0x6b,
    0x61, 0x67, 0x65, 0x73, 0x5c, 0x50, 0x79, 0x74, 0x68, 0x6f, 0x6e, 0x33,
    0x31, 0x31, 0x5c, 0x73, 0x69, 0x74, 0x65, 0x2d, 0x70, 0x61, 0x63, 0x6b,
    0x61, 0x67, 0x65, 0x73, 0x5c, 0x74, 0x6f, 0x72, 0x63, 0x68, 0x5c, 0x6e,
    0x6e, 0x5c, 0x6d, 0x6f, 0x64, 0x75, 0x6c, 0x65, 0x73, 0x5c, 0x62, 0x61,
    0x74, 0x63, 0x68, 0x6e, 0x6f, 0x72, 0x6d, 0x2e, 0x70, 0x79, 0x22, 0x2c,
    0x20, 0x6c, 0x69, 0x6e, 0x65, 0x20, 0x31, 0x39, 0x33, 0x2c, 0x20, 0x69,
    0x6e, 0x20, 0x66, 0x6f, 0x72, 0x77, 0x61, 0x72, 0x64, 0x0a, 0x20, 0x20,
    0x20, 0x20, 0x72, 0x65, 0x74, 0x75, 0x72, 0x6e, 0x20, 0x46, 0x2e, 0x62,
    0x61, 0x74, 0x63, 0x68, 0x5f, 0x6e, 0x6f, 0x72, 0x6d, 0x28, 0x0a, 0xa3,
    0x0a, 0x0a, 0x07, 0x67, 0x65, 0x74, 0x69, 0x74, 0x65, 0x6d, 0x0a, 0x0c,
    0x6d, 0x69, 0x6e, 0x5f, 0x76, 0x61, 0x6c, 0x5f, 0x63, 0x61, 0x73, 0x74,
    0x0a, 0x0c, 0x6d, 0x61, 0x78, 0x5f, 0x76, 0x61, 0x6c, 0x5f, 0x63, 0x61,
    0x73, 0x74, 0x12, 0x08, 0x68, 0x61, 0x72, 0x64, 0x74, 0x61, 0x6e, 0x68,
    0x1a, 0x02, 0x6e, 0x34, 0x22, 0x04, 0x43, 0x6c, 0x69, 0x70, 0x4a, 0xa4,
    0x01, 0x0a, 0x09, 0x6e, 0x61, 0x6d, 0x65, 0x73, 0x70, 0x61, 0x63, 0x65,
    0x12, 0x96, 0x01, 0x3a, 0x20, 0x73, 0x6c, 0x65, 0x65, 0x70, 0x5f, 0x73,
    0x74, 0x61, 0x67, 0x69, 0x6e, 0x67, 0x2e, 0x6d, 0x6f, 0x64, 0x65, 0x6c,
    0x73, 0x2e, 0x53, 0x74, 0x75, 0x64, 0x65, 0x6e, 0x74, 0x43, 0x52, 0x4e,
    0x4e, 0x2f, 0x63, 0x6e, 0x6e, 0x3a, 0x20, 0x74, 0x6f, 0x72, 0x63, 0x68,
    0x2e, 0x6e, 0x6e, 0x2e, 0x6d, 0x6f, 0x64, 0x75, 0x6c, 0x65, 0x73, 0x2e,
    0x63, 0x6f, 0x6e, 0x74, 0x61, 0x69, 0x6e, 0x65, 0x72, 0x2e, 0x53, 0x65,
    0x71, 0x75, 0x65, 0x6e, 0x74, 0x69, 0x61, 0x6c, 0x2f, 0x63, 0x6e, 0x6e,
    0x2e, 0x32, 0x3a, 0x20, 0x74, 0x6f, 0x72, 0x63, 0x68, 0x2e, 0x6e, 0x6e,
    0x2e, 0x6d, 0x6f, 0x64, 0x75, 0x6c, 0x65, 0x73, 0x2e, 0x61, 0x63, 0x74,
    0x69, 0x76, 0x61, 0x74, 0x69, 0x6f, 0x6e, 0x2e, 0x52, 0x65, 0x4c, 0x55,
    0x36, 0x2f, 0x68, 0x61, 0x72, 0x64, 0x74, 0x61, 0x6e, 0x68, 0x3a, 0x20,
    0x61, 0x74, 0x65, 0x6e, 0x2e, 0x68, 0x61, 0x72, 0x64, 0x74, 0x61, 0x6e,
    0x68, 0x2e, 0x64, 0x65, 0x66, 0x61, 0x75, 0x6c, 0x74, 0x4a, 0xae, 0x01,
    0x0a, 0x1e, 0x70, 0x6b, 0x67, 0x2e, 0x74, 0x6f, 0x72, 0x63, 0x68, 0x2e,
    0x6f, 0x6e, 0x6e, 0x78, 0x2e, 0x63, 0x6c, 0x61, 0x73, 0x73, 0x5f, 0x68,
    0x69, 0x65, 0x72, 0x61, 0x72, 0x63, 0x68, 0x79, 0x12, 0x8b, 0x01, 0x5b,
    0x27, 0x73, 0x6c, 0x65, 0x65, 0x70, 0x5f, 0x73, 0x74, 0x61, 0x67, 0x69,
    0x6e, 0x67, 0x2e, 0x6d, 0x6f, 0x64, 0x65, 0x6c, 0x73, 0x2e, 0x53, 0x74,
    0x75, 0x64, 0x65, 0x6e, 0x74, 0x43, 0x52, 0x4e, 0x4e, 0x27, 0x2c, 0x20,
    0x27, 0x74, 0x6f, 0x72, 0x63, 0x68, 0x2e, 0x6e, 0x6e, 0x2e, 0x6d, 0x6f,
    0x64, 0x75, 0x6c, 0x65, 0x73, 0x2e, 0x63, 0x6f, 0x6e, 0x74, 0x61, 0x69,
    0x6e, 0x65, 0x72, 0x2e, 0x53, 0x65, 0x71, 0x75, 0x65, 0x6e, 0x74, 0x69,
    0x61, 0x6c, 0x27, 0x2c, 0x20, 0x27, 0x74, 0x6f, 0x72, 0x63, 0x68, 0x2e,
    0x6e, 0x6e, 0x2e, 0x6d, 0x6f, 0x64, 0x75, 0x6c, 0x65, 0x73, 0x2e, 0x61,
    0x63, 0x74, 0x69, 0x76, 0x61, 0x74, 0x69, 0x6f, 0x6e, 0x2e, 0x52, 0x65,
    0x4c, 0x55, 0x36, 0x27, 0x2c, 0x20, 0x27, 0x61, 0x74, 0x65, 0x6e, 0x2e,
    0x68, 0x61, 0x72, 0x64, 0x74, 0x61, 0x6e, 0x68, 0x2e, 0x64, 0x65, 0x66,
    0x61, 0x75, 0x6c, 0x74, 0x27, 0x5d, 0x4a, 0x95, 0x01, 0x0a, 0x16, 0x70,
    0x6b, 0x67, 0x2e, 0x74, 0x6f, 0x72, 0x63, 0x68, 0x2e, 0x6f, 0x6e, 0x6e,
    0x78, 0x2e, 0x66, 0x78, 0x5f, 0x6e, 0x6f, 0x64, 0x65, 0x12, 0x7b, 0x25,
    0x68, 0x61, 0x72, 0x64, 0x74, 0x61, 0x6e, 0x68, 0x20, 0x3a, 0x20, 0x5b,
    0x6e, 0x75, 0x6d, 0x5f, 0x75, 0x73, 0x65, 0x72, 0x73, 0x3d, 0x31, 0x5d,
    0x20, 0x3d, 0x20, 0x63, 0x61, 0x6c, 0x6c, 0x5f, 0x66, 0x75, 0x6e, 0x63,
    0x74, 0x69, 0x6f, 0x6e, 0x5b, 0x74, 0x61, 0x72, 0x67, 0x65, 0x74, 0x3d,
    0x74, 0x6f, 0x72, 0x63, 0x68, 0x2e, 0x6f, 0x70, 0x73, 0x2e, 0x61, 0x74,
    0x65, 0x6e, 0x2e, 0x68, 0x61, 0x72, 0x64, 0x74, 0x61, 0x6e, 0x68, 0x2e,
    0x64, 0x65, 0x66, 0x61, 0x75, 0x6c, 0x74, 0x5d, 0x28, 0x61, 0x72, 0x67,
    0x73, 0x20, 0x3d, 0x20, 0x28, 0x25, 0x67, 0x65, 0x74, 0x69, 0x74, 0x65,
    0x6d, 0x2c, 0x20, 0x30, 0x2e, 0x30, 0x2c, 0x20, 0x36, 0x2e, 0x30, 0x29,
    0x2c, 0x20, 0x6b, 0x77, 0x61, 0x72, 0x67, 0x73, 0x20, 0x3d, 0x20, 0x7b,
    0x7d, 0x29, 0x4a, 0x3e, 0x0a, 0x1a, 0x70, 0x6b, 0x67, 0x2e, 0x74, 0x6f,
    0x72, 0x63, 0x68, 0x2e, 0x6f, 0x6e, 0x6e, 0x78, 0x2e, 0x6e, 0x61, 0x6d,
    0x65, 0x5f, 0x73, 0x63, 0x6f, 0x70, 0x65, 0x73, 0x12, 0x20, 0x5b, 0x27,
    0x27, 0x2c, 0x20, 0x27, 0x63, 0x6e, 0x6e, 0x27, 0x2c, 0x20, 0x27, 0x63,
    0x6e, 0x6e, 0x2e, 0x32, 0x27, 0x2c, 0x20, 0x27, 0x68, 0x61, 0x72, 0x64,
    0x74, 0x61, 0x6e, 0x68, 0x27, 0x5d, 0x4a, 0xb7, 0x05, 0x0a, 0x1a, 0x70,
    0x6b, 0x67, 0x2e, 0x74, 0x6f, 0x72, 0x63, 0x68, 0x2e, 0x6f, 0x6e, 0x6e,
    0x78, 0x2e, 0x73, 0x74, 0x61, 0x63, 0x6b, 0x5f, 0x74, 0x72, 0x61, 0x63,
    0x65, 0x12, 0x98, 0x05, 0x46, 0x69, 0x6c, 0x65, 0x20, 0x22, 0x43, 0x3a,
    0x5c, 0x50, 0x72, 0x6f, 0x6a, 0x65, 0x63, 0x74, 0x5c, 0x43, 0x4e, 0x4e,
    0x2d, 0x45, 0x43, 0x47, 0x5c, 0x73, 0x72, 0x63, 0x5c, 0x73, 0x6c, 0x65,
    0x65, 0x70, 0x5f, 0x73, 0x74, 0x61, 0x67, 0x69, 0x6e, 0x67, 0x5c, 0x6d,
    0x6f, 0x64, 0x65, 0x6c, 0x73, 0x2e, 0x70, 0x79, 0x22, 0x2c, 0x20, 0x6c,
    0x69, 0x6e, 0x65, 0x20, 0x31, 0x30, 0x34, 0x2c, 0x20, 0x69, 0x6e, 0x20,
    0x66, 0x6f, 0x72, 0x77, 0x61, 0x72, 0x64, 0x0a, 0x20, 0x20, 0x20, 0x20,
    0x66, 0x65, 0x61, 0x74, 0x73, 0x20, 0x3d, 0x20, 0x73, 0x65, 0x6c, 0x66,
    0x2e, 0x63, 0x6e, 0x6e, 0x28, 0x78, 0x2e, 0x76, 0x69, 0x65, 0x77, 0x28,
    0x62, 0x73, 0x7a, 0x20, 0x2a, 0x20, 0x73, 0x65, 0x71, 0x5f, 0x6c, 0x65,
    0x6e, 0x2c, 0x20, 0x63, 0x68, 0x61, 0x6e, 0x6e, 0x65, 0x6c, 0x73, 0x2c,
    0x20, 0x66, 0x72, 0x65, 0x71, 0x73, 0x2c, 0x20, 0x74, 0x69, 0x6d, 0x65,
    0x73, 0x29, 0x29, 0x2e, 0x76, 0x69, 0x65, 0x77, 0x28, 0x62, 0x73, 0x7a,
    0x2c, 0x20, 0x73, 0x65, 0x71, 0x5f, 0x6c, 0x65, 0x6e, 0x2c, 0x20, 0x36,
    0x34, 0x29, 0x0a, 0x20, 0x20, 0x46, 0x69, 0x6c, 0x65, 0x20, 0x22, 0x43,
    0x3a, 0x5c, 0x55, 0x73, 0x65, 0x72, 0x73, 0x5c, 0x73, 0x68, 0x61, 0x6d,
    0x69, 0x5c, 0x41, 0x70, 0x70, 0x44, 0x61, 0x74, 0x61, 0x5c, 0x4c, 0x6f,
    0x63, 0x61, 0x6c, 0x5c, 0x50, 0x61, 0x63, 0x6b, 0x61, 0x67, 0x65, 0x73,
    0x5c, 0x50, 0x79, 0x74, 0x68, 0x6f, 0x6e, 0x53, 0x6f, 0x66, 0x74, 0x77,
    0x61, 0x72, 0x65, 0x46, 0x6f, 0x75, 0x6e, 0x64, 0x61, 0x74, 0x69, 0x6f,
    0x6e, 0x2e, 0x50, 0x79, 0x74, 0x68, 0x6f, 0x6e, 0x2e, 0x33, 0x2e, 0x31,
    0x31, 0x5f, 0x71, 0x62, 0x7a, 0x35, 0x6e, 0x32, 0x6b, 0x66, 0x72, 0x61,
    0x38, 0x70, 0x30, 0x5c, 0x4c, 0x6f, 0x63, 0x61, 0x6c, 0x43, 0x61, 0x63,
    0x68, 0x65, 0x5c, 0x6c, 0x6f, 0x63, 0x61, 0x6c, 0x2d, 0x70, 0x61, 0x63,
    0x6b, 0x61, 0x67, 0x65, 0x73, 0x5c, 0x50, 0x79, 0x74, 0x68, 0x6f, 0x6e,
    0x33, 0x31, 0x31, 0x5c, 0x73, 0x69, 0x74, 0x65, 0x2d, 0x70, 0x61, 0x63,
    0x6b, 0x61, 0x67, 0x65, 0x73, 0x5c, 0x74, 0x6f, 0x72, 0x63, 0x68, 0x5c,
    0x6e, 0x6e, 0x5c, 0x6d, 0x6f, 0x64, 0x75, 0x6c, 0x65, 0x73, 0x5c, 0x63,
    0x6f, 0x6e, 0x74, 0x61, 0x69, 0x6e, 0x65, 0x72, 0x2e, 0x70, 0x79, 0x22,
    0x2c, 0x20, 0x6c, 0x69, 0x6e, 0x65, 0x20, 0x32, 0x35, 0x30, 0x2c, 0x20,
    0x69, 0x6e, 0x20, 0x66, 0x6f, 0x72, 0x77, 0x61, 0x72, 0x64, 0x0a, 0x20,
    0x20, 0x20, 0x20, 0x69, 0x6e, 0x70, 0x75, 0x74, 0x20, 0x3d, 0x20, 0x6d,
    0x6f, 0x64, 0x75, 0x6c, 0x65, 0x28, 0x69, 0x6e, 0x70, 0x75, 0x74, 0x29,
    0x0a, 0x20, 0x20, 0x46, 0x69, 0x6c, 0x65, 0x20, 0x22, 0x43, 0x3a, 0x5c,
    0x55, 0x73, 0x65, 0x72, 0x73, 0x5c, 0x73, 0x68, 0x61, 0x6d, 0x69, 0x5c,
    0x41, 0x70, 0x70, 0x44, 0x61, 0x74, 0x61, 0x5c, 0x4c, 0x6f, 0x63, 0x61,
    0x6c, 0x5c, 0x50, 0x61, 0x63, 0x6b, 0x61, 0x67, 0x65, 0x73, 0x5c, 0x50,
    0x79, 0x74, 0x68, 0x6f, 0x6e, 0x53, 0x6f, 0x66, 0x74, 0x77, 0x61, 0x72,
    0x65, 0x46, 0x6f, 0x75, 0x6e, 0x64, 0x61, 0x74, 0x69, 0x6f, 0x6e, 0x2e,
    0x50, 0x79, 0x74, 0x68, 0x6f, 0x6e, 0x2e, 0x33, 0x2e, 0x31, 0x31, 0x5f,
    0x71, 0x62, 0x7a, 0x35, 0x6e, 0x32, 0x6b, 0x66, 0x72, 0x61, 0x38, 0x70,
    0x30, 0x5c, 0x4c, 0x6f, 0x63, 0x61, 0x6c, 0x43, 0x61, 0x63, 0x68, 0x65,
    0x5c, 0x6c, 0x6f, 0x63, 0x61, 0x6c, 0x2d, 0x70, 0x61, 0x63, 0x6b, 0x61,
    0x67, 0x65, 0x73, 0x5c, 0x50, 0x79, 0x74, 0x68, 0x6f, 0x6e, 0x33, 0x31,
    0x31, 0x5c, 0x73, 0x69, 0x74, 0x65, 0x2d, 0x70, 0x61, 0x63, 0x6b, 0x61,
    0x67, 0x65, 0x73, 0x5c, 0x74, 0x6f, 0x72, 0x63, 0x68, 0x5c, 0x6e, 0x6e,
    0x5c, 0x6d, 0x6f, 0x64, 0x75, 0x6c, 0x65, 0x73, 0x5c, 0x61, 0x63, 0x74,
    0x69, 0x76, 0x61, 0x74, 0x69, 0x6f, 0x6e, 0x2e, 0x70, 0x79, 0x22, 0x2c,
    0x20, 0x6c, 0x69, 0x6e, 0x65, 0x20, 0x32, 0x39, 0x32, 0x2c, 0x20, 0x69,
    0x6e, 0x20, 0x66, 0x6f, 0x72, 0x77, 0x61, 0x72, 0x64, 0x0a, 0x20, 0x20,
    0x20, 0x20, 0x72, 0x65, 0x74, 0x75, 0x72, 0x6e, 0x20, 0x46, 0x2e, 0x68,
    0x61, 0x72, 0x64, 0x74, 0x61, 0x6e, 0x68, 0x28, 0x69, 0x6e, 0x70, 0x75,
    0x74, 0x2c, 0x20, 0x73, 0x65, 0x6c, 0x66, 0x2e, 0x6d, 0x69, 0x6e, 0x5f,
    0x76, 0x61, 0x6c, 0x2c, 0x20, 0x73, 0x65, 0x6c, 0x66, 0x2e, 0x6d, 0x61,
    0x78, 0x5f, 0x76, 0x61, 0x6c, 0x2c, 0x20, 0x73, 0x65, 0x6c, 0x66, 0x2e,
    0x69, 0x6e, 0x70, 0x6c, 0x61, 0x63, 0x65, 0x29, 0x0a, 0xb4, 0x0d, 0x0a,
    0x08, 0x68, 0x61, 0x72, 0x64, 0x74, 0x61, 0x6e, 0x68, 0x0a, 0x0f, 0x63,
    0x6e, 0x6e, 0x2e, 0x33, 0x2e, 0x64, 0x77, 0x2e, 0x77, 0x65, 0x69, 0x67,
    0x68, 0x74, 0x12, 0x08, 0x63, 0x6f, 0x6e, 0x76, 0x32, 0x64, 0x5f, 0x31,
    0x1a, 0x0d, 0x6e, 0x6f, 0x64, 0x65, 0x5f, 0x43, 0x6f, 0x6e, 0x76, 0x5f,
    0x31, 0x37, 0x31, 0x22, 0x04, 0x43, 0x6f, 0x6e, 0x76, 0x2a, 0x15, 0x0a,
    0x08, 0x61, 0x75, 0x74, 0x6f, 0x5f, 0x70, 0x61, 0x64, 0x22, 0x06, 0x4e,
    0x4f, 0x54, 0x53, 0x45, 0x54, 0xa0, 0x01, 0x03, 0x2a, 0x12, 0x0a, 0x09,
    0x64, 0x69, 0x6c, 0x61, 0x74, 0x69, 0x6f, 0x6e, 0x73, 0x40, 0x01, 0x40,
    0x01, 0xa0, 0x01, 0x07, 0x2a, 0x0c, 0x0a, 0x05, 0x67, 0x72, 0x6f, 0x75,
    0x70, 0x18, 0x10, 0xa0, 0x01, 0x02, 0x2a, 0x11, 0x0a, 0x04, 0x70, 0x61,
    0x64, 0x73, 0x40, 0x01, 0x40, 0x01, 0x40, 0x01, 0x40, 0x01, 0xa0, 0x01,
    0x07, 0x2a, 0x10, 0x0a, 0x07, 0x73, 0x74, 0x72, 0x69, 0x64, 0x65, 0x73,
    0x40, 0x02, 0x40, 0x02, 0xa0, 0x01, 0x07, 0x4a, 0xcd, 0x01, 0x0a, 0x09,
    0x6e, 0x61, 0x6d, 0x65, 0x73, 0x70, 0x61, 0x63, 0x65, 0x12, 0xbf, 0x01,
    0x3a, 0x20, 0x73, 0x6c, 0x65, 0x65, 0x70, 0x5f, 0x73, 0x74, 0x61, 0x67,
    0x69, 0x6e, 0x67, 0x2e, 0x6d, 0x6f, 0x64, 0x65, 0x6c, 0x73, 0x2e, 0x53,
    0x74, 0x75, 0x64, 0x65, 0x6e, 0x74, 0x43, 0x52, 0x4e, 0x4e, 0x2f, 0x63,
    0x6e, 0x6e, 0x3a, 0x20, 0x74, 0x6f, 0x72, 0x63, 0x68, 0x2e, 0x6e, 0x6e,
    0x2e, 0x6d, 0x6f, 0x64, 0x75, 0x6c, 0x65, 0x73, 0x2e, 0x63, 0x6f, 0x6e,
    0x74, 0x61, 0x69, 0x6e, 0x65, 0x72, 0x2e, 0x53, 0x65, 0x71, 0x75, 0x65,
    0x6e, 0x74, 0x69, 0x61, 0x6c, 0x2f, 0x63, 0x6e, 0x6e, 0x2e, 0x33, 0x3a,
    0x20, 0x73, 0x6c, 0x65, 0x65, 0x70, 0x5f, 0x73, 0x74, 0x61, 0x67, 0x69,
    0x6e, 0x67, 0x2e, 0x6d, 0x6f, 0x64, 0x65, 0x6c, 0x73, 0x2e, 0x44, 0x65,
    0x70, 0x74, 0x68, 0x77, 0x69, 0x73, 0x65, 0x53, 0x65, 0x70, 0x43, 0x6f,
    0x6e, 0x76, 0x2f, 0x63, 0x6e, 0x6e, 0x2e, 0x33, 0x2e, 0x64, 0x77, 0x3a,
    0x20, 0x74, 0x6f, 0x72, 0x63, 0x68, 0x2e, 0x6e, 0x6e, 0x2e, 0x6d, 0x6f,
    0x64, 0x75, 0x6c, 0x65, 0x73, 0x2e, 0x63, 0x6f, 0x6e, 0x76, 0x2e, 0x43,
    0x6f, 0x6e, 0x76, 0x32, 0x64, 0x2f, 0x63, 0x6f, 0x6e, 0x76, 0x32, 0x64,
    0x5f, 0x31, 0x3a, 0x20, 0x61, 0x74, 0x65, 0x6e, 0x2e, 0x63, 0x6f, 0x6e,
    0x76, 0x32, 0x64, 0x2e, 0x64, 0x65, 0x66, 0x61, 0x75, 0x6c, 0x74, 0x4a,
    0x3f, 0x0a, 0x21, 0x70, 0x6b, 0x67, 0x2e, 0x6f, 0x6e, 0x6e, 0x78, 0x73,
    0x63, 0x72, 0x69, 0x70, 0x74, 0x2e, 0x72, 0x65, 0x77, 0x72, 0x69, 0x74,
    0x65, 0x72, 0x2e, 0x72, 0x75, 0x6c, 0x65, 0x5f, 0x6e, 0x61, 0x6d, 0x65,
    0x12, 0x1a, 0x52, 0x65, 0x6d, 0x6f, 0x76, 0x65, 0x4f, 0x70, 0x74, 0x69,
    0x6f, 0x6e, 0x61, 0x6c, 0x42, 0x69, 0x61, 0x73, 0x46, 0x72, 0x6f, 0x6d,
    0x43, 0x6f, 0x6e, 0x76, 0x4a, 0xd0, 0x01, 0x0a, 0x1e, 0x70, 0x6b, 0x67,
    0x2e, 0x74, 0x6f, 0x72, 0x63, 0x68, 0x2e, 0x6f, 0x6e, 0x6e, 0x78, 0x2e,
    0x63, 0x6c, 0x61, 0x73, 0x73, 0x5f, 0x68, 0x69, 0x65, 0x72, 0x61, 0x72,
    0x63, 0x68, 0x79, 0x12, 0xad, 0x01, 0x5b, 0x27, 0x73, 0x6c, 0x65, 0x65,
    0x70, 0x5f, 0x73, 0x74, 0x61, 0x67, 0x69, 0x6e, 0x67, 0x2e, 0x6d, 0x6f,
    0x64, 0x65, 0x6c, 0x73, 0x2e, 0x53, 0x74, 0x75, 0x64, 0x65, 0x6e, 0x74,
    0x43, 0x52, 0x4e, 0x4e, 0x27, 0x2c, 0x20, 0x27, 0x74, 0x6f, 0x72, 0x63,
    0x68, 0x2e, 0x6e, 0x6e, 0x2e, 0x6d, 0x6f, 0x64, 0x75, 0x6c, 0x65, 0x73,
    0x2e, 0x63, 0x6f, 0x6e, 0x74, 0x61, 0x69, 0x6e, 0x65, 0x72, 0x2e, 0x53,
    0x65, 0x71, 0x75, 0x65, 0x6e, 0x74, 0x69, 0x61, 0x6c, 0x27, 0x2c, 0x20,
    0x27, 0x73, 0x6c, 0x65, 0x65, 0x70, 0x5f, 0x73, 0x74, 0x61, 0x67, 0x69,
    0x6e, 0x67, 0x2e, 0x6d, 0x6f, 0x64, 0x65, 0x6c, 0x73, 0x2e, 0x44, 0x65,
    0x70, 0x74, 0x68, 0x77, 0x69, 0x73, 0x65, 0x53, 0x65, 0x70, 0x43, 0x6f,
    0x6e, 0x76, 0x27, 0x2c, 0x20, 0x27, 0x74, 0x6f, 0x72, 0x63, 0x68, 0x2e,
    0x6e, 0x6e, 0x2e, 0x6d, 0x6f, 0x64, 0x75, 0x6c, 0x65, 0x73, 0x2e, 0x63,
    0x6f, 0x6e, 0x76, 0x2e, 0x43, 0x6f, 0x6e, 0x76, 0x32, 0x64, 0x27, 0x2c,
    0x20, 0x27, 0x61, 0x74, 0x65, 0x6e, 0x2e, 0x63, 0x6f, 0x6e, 0x76, 0x32,
    0x64, 0x2e, 0x64, 0x65, 0x66, 0x61, 0x75, 0x6c, 0x74, 0x27, 0x5d, 0x4a,
    0xc1, 0x01, 0x0a, 0x16, 0x70, 0x6b, 0x67, 0x2e, 0x74, 0x6f, 0x72, 0x63,
    0x68, 0x2e, 0x6f, 0x6e, 0x6e, 0x78, 0x2e, 0x66, 0x78, 0x5f, 0x6e, 0x6f,
    0x64, 0x65, 0x12, 0xa6, 0x01, 0x25, 0x63, 0x6f, 0x6e, 0x76, 0x32, 0x64,
    0x5f, 0x31, 0x20, 0x3a, 0x20, 0x5b, 0x6e, 0x75, 0x6d, 0x5f, 0x75, 0x73,
    0x65, 0x72, 0x73, 0x3d, 0x31, 0x5d, 0x20, 0x3d, 0x20, 0x63, 0x61, 0x6c,
    0x6c, 0x5f, 0x66, 0x75, 0x6e, 0x63, 0x74, 0x69, 0x6f, 0x6e, 0x5b, 0x74,
    0x61, 0x72, 0x67, 0x65, 0x74, 0x3d, 0x74, 0x6f, 0x72, 0x63, 0x68, 0x2e,
    0x6f, 0x70, 0x73, 0x2e, 0x61, 0x74, 0x65, 0x6e, 0x2e, 0x63, 0x6f, 0x6e,
    0x76, 0x32, 0x64, 0x2e, 0x64, 0x65, 0x66, 0x61, 0x75, 0x6c, 0x74, 0x5d,
    0x28, 0x61, 0x72, 0x67, 0x73, 0x20, 0x3d, 0x20, 0x28, 0x25, 0x68, 0x61,
    0x72, 0x64, 0x74, 0x61, 0x6e, 0x68, 0x2c, 0x20, 0x25, 0x70, 0x5f, 0x63,
    0x6e, 0x6e, 0x5f, 0x33, 0x5f, 0x64, 0x77, 0x5f, 0x77, 0x65, 0x69, 0x67,
    0x68, 0x74, 0x2c, 0x20, 0x4e, 0x6f, 0x6e, 0x65, 0x2c, 0x20, 0x5b, 0x32,
    0x2c, 0x20, 0x32, 0x5d, 0x2c, 0x20, 0x5b, 0x31, 0x2c, 0x20, 0x31, 0x5d,
    0x2c, 0x20, 0x5b, 0x31, 0x2c, 0x20, 0x31, 0x5d, 0x2c, 0x20, 0x31, 0x36,
    0x29, 0x2c, 0x20, 0x6b, 0x77, 0x61, 0x72, 0x67, 0x73, 0x20, 0x3d, 0x20,
    0x7b, 0x7d, 0x29, 0x4a, 0x4a, 0x0a, 0x1a, 0x70, 0x6b, 0x67, 0x2e, 0x74,
    0x6f, 0x72, 0x63, 0x68, 0x2e, 0x6f, 0x6e, 0x6e, 0x78, 0x2e, 0x6e, 0x61,
    0x6d, 0x65, 0x5f, 0x73, 0x63, 0x6f, 0x70, 0x65, 0x73, 0x12, 0x2c, 0x5b,
    0x27, 0x27, 0x2c, 0x20, 0x27, 0x63, 0x6e, 0x6e, 0x27, 0x2c, 0x20, 0x27,
    0x63, 0x6e, 0x6e, 0x2e, 0x33, 0x27, 0x2c, 0x20, 0x27, 0x63, 0x6e, 0x6e,
    0x2e, 0x33, 0x2e, 0x64, 0x77, 0x27, 0x2c, 0x20, 0x27, 0x63, 0x6f, 0x6e,
    0x76, 0x32, 0x64, 0x5f, 0x31, 0x27, 0x5d, 0x4a, 0xa5, 0x06, 0x0a, 0x1a,
    0x70, 0x6b, 0x67, 0x2e, 0x74, 0x6f, 0x72, 0x63, 0x68, 0x2e, 0x6f, 0x6e,
    0x6e, 0x78, 0x2e, 0x73, 0x74, 0x61, 0x63, 0x6b, 0x5f, 0x74, 0x72, 0x61,
    0x63, 0x65, 0x12, 0x86, 0x06, 0x46, 0x69, 0x6c, 0x65, 0x20, 0x22, 0x43,
    0x3a, 0x5c, 0x50, 0x72, 0x6f, 0x6a, 0x65, 0x63, 0x74, 0x5c, 0x43, 0x4e,
    0x4e, 0x2d, 0x45, 0x43, 0x47, 0x5c, 0x73, 0x72, 0x63, 0x5c, 0x73, 0x6c,
    0x65, 0x65, 0x70, 0x5f, 0x73, 0x74, 0x61, 0x67, 0x69, 0x6e, 0x67, 0x5c,
    0x6d, 0x6f, 0x64, 0x65, 0x6c, 0x73, 0x2e, 0x70, 0x79, 0x22, 0x2c, 0x20,
    0x6c, 0x69, 0x6e, 0x65, 0x20, 0x31, 0x30, 0x34, 0x2c, 0x20, 0x69, 0x6e,
    0x20, 0x66, 0x6f, 0x72, 0x77, 0x61, 0x72, 0x64, 0x0a, 0x20, 0x20, 0x20,
    0x20, 0x66, 0x65, 0x61, 0x74, 0x73, 0x20, 0x3d, 0x20, 0x73, 0x65, 0x6c,
    0x66, 0x2e, 0x63, 0x6e, 0x6e, 0x28, 0x78, 0x2e, 0x76, 0x69, 0x65, 0x77,
    0x28, 0x62, 0x73, 0x7a, 0x20, 0x2a, 0x20, 0x73, 0x65, 0x71, 0x5f, 0x6c,
    0x65, 0x6e, 0x2c, 0x20, 0x63, 0x68, 0x61, 0x6e, 0x6e, 0x65, 0x6c, 0x73,
    0x2c, 0x20, 0x66, 0x72, 0x65, 0x71, 0x73, 0x2c, 0x20, 0x74, 0x69, 0x6d,
    0x65, 0x73, 0x29, 0x29, 0x2e, 0x76, 0x69, 0x65, 0x77, 0x28, 0x62, 0x73,
    0x7a, 0x2c, 0x20, 0x73, 0x65, 0x71, 0x5f, 0x6c, 0x65, 0x6e, 0x2c, 0x20,
    0x36, 0x34, 0x29, 0x0a, 0x20, 0x20, 0x46, 0x69, 0x6c, 0x65, 0x20, 0x22,
    0x43, 0x3a, 0x5c, 0x55, 0x73, 0x65, 0x72, 0x73, 0x5c, 0x73, 0x68, 0x61,
    0x6d, 0x69, 0x5c, 0x41, 0x70, 0x70, 0x44, 0x61, 0x74, 0x61, 0x5c, 0x4c,
    0x6f, 0x63, 0x61, 0x6c, 0x5c, 0x50, 0x61, 0x63, 0x6b, 0x61, 0x67, 0x65,
    0x73, 0x5c, 0x50, 0x79, 0x74, 0x68, 0x6f, 0x6e, 0x53, 0x6f, 0x66, 0x74,
    0x77, 0x61, 0x72, 0x65, 0x46, 0x6f, 0x75, 0x6e, 0x64, 0x61, 0x74, 0x69,
    0x6f, 0x6e, 0x2e, 0x50, 0x79, 0x74, 0x68, 0x6f, 0x6e, 0x2e, 0x33, 0x2e,
    0x31, 0x31, 0x5f, 0x71, 0x62, 0x7a, 0x35, 0x6e, 0x32, 0x6b, 0x66, 0x72,
    0x61, 0x38, 0x70, 0x30, 0x5c, 0x4c, 0x6f, 0x63, 0x61, 0x6c, 0x43, 0x61,
    0x63, 0x68, 0x65, 0x5c, 0x6c, 0x6f, 0x63, 0x61, 0x6c, 0x2d, 0x70, 0x61,
    0x63, 0x6b, 0x61, 0x67, 0x65, 0x73, 0x5c, 0x50, 0x79, 0x74, 0x68, 0x6f,
    0x6e, 0x33, 0x31, 0x31, 0x5c, 0x73, 0x69, 0x74, 0x65, 0x2d, 0x70, 0x61,
    0x63, 0x6b, 0x61, 0x67, 0x65, 0x73, 0x5c, 0x74, 0x6f, 0x72, 0x63, 0x68,
    0x5c, 0x6e, 0x6e, 0x5c, 0x6d, 0x6f, 0x64, 0x75, 0x6c, 0x65, 0x73, 0x5c,
    0x63, 0x6f, 0x6e, 0x74, 0x61, 0x69, 0x6e, 0x65, 0x72, 0x2e, 0x70, 0x79,
    0x22, 0x2c, 0x20, 0x6c, 0x69, 0x6e, 0x65, 0x20, 0x32, 0x35, 0x30, 0x2c,
    0x20, 0x69, 0x6e, 0x20, 0x66, 0x6f, 0x72, 0x77, 0x61, 0x72, 0x64, 0x0a,
    0x20, 0x20, 0x20, 0x20, 0x69, 0x6e, 0x70, 0x75, 0x74, 0x20, 0x3d, 0x20,
    0x6d, 0x6f, 0x64, 0x75, 0x6c, 0x65, 0x28, 0x69, 0x6e, 0x70, 0x75, 0x74,
    0x29, 0x0a, 0x20, 0x20, 0x46, 0x69, 0x6c, 0x65, 0x20, 0x22, 0x43, 0x3a,
    0x5c, 0x50, 0x72, 0x6f, 0x6a, 0x65, 0x63, 0x74, 0x5c, 0x43, 0x4e, 0x4e,
    0x2d, 0x45, 0x43, 0x47, 0x5c, 0x73, 0x72, 0x63, 0x5c, 0x73, 0x6c, 0x65,
    0x65, 0x70, 0x5f, 0x73, 0x74, 0x61, 0x67, 0x69, 0x6e, 0x67, 0x5c, 0x6d,
    0x6f, 0x64, 0x65, 0x6c, 0x73, 0x2e, 0x70, 0x79, 0x22, 0x2c, 0x20, 0x6c,
    0x69, 0x6e, 0x65, 0x20, 0x38, 0x31, 0x2c, 0x20, 0x69, 0x6e, 0x20, 0x66,
    0x6f, 0x72, 0x77, 0x61, 0x72, 0x64, 0x0a, 0x20, 0x20, 0x20, 0x20, 0x72,
    0x65, 0x74, 0x75, 0x72, 0x6e, 0x20, 0x46, 0x2e, 0x72, 0x65, 0x6c, 0x75,
    0x36, 0x28, 0x73, 0x65, 0x6c, 0x66, 0x2e, 0x62, 0x6e, 0x28, 0x73, 0x65,
    0x6c, 0x66, 0x2e, 0x70, 0x77, 0x28, 0x73, 0x65, 0x6c, 0x66, 0x2e, 0x64,
    0x77, 0x28, 0x78, 0x29, 0x29, 0x29, 0x29, 0x0a, 0x20, 0x20, 0x46, 0x69,
    0x6c, 0x65, 0x20, 0x22, 0x43, 0x3a, 0x5c, 0x55, 0x73, 0x65, 0x72, 0x73,
    0x5c, 0x73, 0x68, 0x61, 0x6d, 0x69, 0x5c, 0x41, 0x70, 0x70, 0x44, 0x61,
    0x74, 0x61, 0x5c, 0x4c, 0x6f, 0x63, 0x61, 0x6c, 0x5c, 0x50, 0x61, 0x63,
    0x6b, 0x61, 0x67, 0x65, 0x73, 0x5c, 0x50, 0x79, 0x74, 0x68, 0x6f, 0x6e,
    0x53, 0x6f, 0x66, 0x74, 0x77, 0x61, 0x72, 0x65, 0x46, 0x6f, 0x75, 0x6e,
    0x64, 0x61, 0x74, 0x69, 0x6f, 0x6e, 0x2e, 0x50, 0x79, 0x74, 0x68, 0x6f,
    0x6e, 0x2e, 0x33, 0x2e, 0x31, 0x31, 0x5f, 0x71, 0x62, 0x7a, 0x35, 0x6e,
    0x32, 0x6b, 0x66, 0x72, 0x61, 0x38, 0x70, 0x30, 0x5c, 0x4c, 0x6f, 0x63,
    0x61, 0x6c, 0x43, 0x61, 0x63, 0x68, 0x65, 0x5c, 0x6c, 0x6f, 0x63, 0x61,
    0x6c, 0x2d, 0x70, 0x61, 0x63, 0x6b, 0x61, 0x67, 0x65, 0x73, 0x5c, 0x50,
    0x79, 0x74, 0x68, 0x6f, 0x6e, 0x33, 0x31, 0x31, 0x5c, 0x73, 0x69, 0x74,
    0x65, 0x2d, 0x70, 0x61, 0x63, 0x6b, 0x61, 0x67, 0x65, 0x73, 0x5c, 0x74,
    0x6f, 0x72, 0x63, 0x68, 0x5c, 0x6e, 0x6e, 0x5c, 0x6d, 0x6f, 0x64, 0x75,
    0x6c, 0x65, 0x73, 0x5c, 0x63, 0x6f, 0x6e, 0x76, 0x2e, 0x70, 0x79, 0x22,
    0x2c, 0x20, 0x6c, 0x69, 0x6e, 0x65, 0x20, 0x35, 0x34, 0x38, 0x2c, 0x20,
    0x69, 0x6e, 0x20, 0x66, 0x6f, 0x72, 0x77, 0x61, 0x72, 0x64, 0x0a, 0x20,
    0x20, 0x20, 0x20, 0x72, 0x65, 0x74, 0x75, 0x72, 0x6e, 0x20, 0x73, 0x65,
    0x6c, 0x66, 0x2e, 0x5f, 0x63, 0x6f, 0x6e, 0x76, 0x5f, 0x66, 0x6f, 0x72,
    0x77, 0x61, 0x72, 0x64, 0x28, 0x69, 0x6e, 0x70, 0x75, 0x74, 0x2c, 0x20,
    0x73, 0x65, 0x6c, 0x66, 0x2e, 0x77, 0x65, 0x69, 0x67, 0x68, 0x74, 0x2c,
    0x20, 0x73, 0x65, 0x6c, 0x66, 0x2e, 0x62, 0x69, 0x61, 0x73, 0x29, 0x0a,
    0xba, 0x0f, 0x0a, 0x08, 0x63, 0x6f, 0x6e, 0x76, 0x32, 0x64, 0x5f, 0x31,
    0x0a, 0x0f, 0x63, 0x6e, 0x6e, 0x2e, 0x33, 0x2e, 0x70, 0x77, 0x2e, 0x77,
    0x65, 0x69, 0x67, 0x68, 0x74, 0x0a, 0x14, 0x63, 0x6e, 0x6e, 0x2e, 0x33,
    0x2e, 0x70, 0x77, 0x2e, 0x77, 0x65, 0x69, 0x67, 0x68, 0x74, 0x5f, 0x62,
    0x69, 0x61, 0x73, 0x12, 0x09, 0x67, 0x65, 0x74, 0x69, 0x74, 0x65, 0x6d,
    0x5f, 0x33, 0x1a, 0x0d, 0x6e, 0x6f, 0x64, 0x65, 0x5f, 0x43, 0x6f, 0x6e,
    0x76, 0x5f, 0x31, 0x37, 0x33, 0x22, 0x04, 0x43, 0x6f, 0x6e, 0x76, 0x2a,
    0x15, 0x0a, 0x08, 0x61, 0x75, 0x74, 0x6f, 0x5f, 0x70, 0x61, 0x64, 0x22,
    0x06, 0x4e, 0x4f, 0x54, 0x53, 0x45, 0x54, 0xa0, 0x01, 0x03, 0x2a, 0x12,
    0x0a, 0x09, 0x64, 0x69, 0x6c, 0x61, 0x74, 0x69, 0x6f, 0x6e, 0x73, 0x40,
    0x01, 0x40, 0x01, 0xa0, 0x01, 0x07, 0x2a, 0x0c, 0x0a, 0x05, 0x67, 0x72,
    0x6f, 0x75, 0x70, 0x18, 0x01, 0xa0, 0x01, 0x02, 0x2a, 0x11, 0x0a, 0x04,
    0x70, 0x61, 0x64, 0x73, 0x40, 0x00, 0x40, 0x00, 0x40, 0x00, 0x40, 0x00,
    0xa0, 0x01, 0x07, 0x2a, 0x10, 0x0a, 0x07, 0x73, 0x74, 0x72, 0x69, 0x64,
    0x65, 0x73, 0x40, 0x01, 0x40, 0x01, 0xa0, 0x01, 0x07, 0x4a, 0x93, 0x02,
    0x0a, 0x09, 0x6e, 0x61, 0x6d, 0x65, 0x73, 0x70, 0x61, 0x63, 0x65, 0x12,
    0x85, 0x02, 0x3a, 0x20, 0x73, 0x6c, 0x65, 0x65, 0x70, 0x5f, 0x73, 0x74,
    0x61, 0x67, 0x69, 0x6e, 0x67, 0x2e, 0x6d, 0x6f, 0x64, 0x65, 0x6c, 0x73,
    0x2e, 0x53, 0x74, 0x75, 0x64, 0x65, 0x6e, 0x74, 0x43, 0x52, 0x4e, 0x4e,
    0x2f, 0x63, 0x6e, 0x6e, 0x3a, 0x20, 0x74, 0x6f, 0x72, 0x63, 0x68, 0x2e,
    0x6e, 0x6e, 0x2e, 0x6d, 0x6f, 0x64, 0x75, 0x6c, 0x65, 0x73, 0x2e, 0x63,
    0x6f, 0x6e, 0x74, 0x61, 0x69, 0x6e, 0x65, 0x72, 0x2e, 0x53, 0x65, 0x71,
    0x75, 0x65, 0x6e, 0x74, 0x69, 0x61, 0x6c, 0x2f, 0x63, 0x6e, 0x6e, 0x2e,
    0x33, 0x3a, 0x20, 0x73, 0x6c, 0x65, 0x65, 0x70, 0x5f, 0x73, 0x74, 0x61,
    0x67, 0x69, 0x6e, 0x67, 0x2e, 0x6d, 0x6f, 0x64, 0x65, 0x6c, 0x73, 0x2e,
    0x44, 0x65, 0x70, 0x74, 0x68, 0x77, 0x69, 0x73, 0x65, 0x53, 0x65, 0x70,
    0x43, 0x6f, 0x6e, 0x76, 0x2f, 0x63, 0x6e, 0x6e, 0x2e, 0x33, 0x2e, 0x62,
    0x6e, 0x3a, 0x20, 0x74, 0x6f, 0x72, 0x63, 0x68, 0x2e, 0x6e, 0x6e, 0x2e,
    0x6d, 0x6f, 0x64, 0x75, 0x6c, 0x65, 0x73, 0x2e, 0x62, 0x61, 0x74, 0x63,
    0x68, 0x6e, 0x6f, 0x72, 0x6d, 0x2e, 0x42, 0x61, 0x74, 0x63, 0x68, 0x4e,
    0x6f, 0x72, 0x6d, 0x32, 0x64, 0x2f, 0x5f, 0x6e, 0x61, 0x74, 0x69, 0x76,
    0x65, 0x5f, 0x62, 0x61, 0x74, 0x63, 0x68, 0x5f, 0x6e, 0x6f, 0x72, 0x6d,
    0x5f, 0x6c, 0x65, 0x67, 0x69, 0x74, 0x5f, 0x6e, 0x6f, 0x5f, 0x74, 0x72,
    0x61, 0x69, 0x6e, 0x69, 0x6e, 0x67, 0x5f, 0x31, 0x3a, 0x20, 0x61, 0x74,
    0x65, 0x6e, 0x2e, 0x5f, 0x6e, 0x61, 0x74, 0x69, 0x76, 0x65, 0x5f, 0x62,
    0x61, 0x74, 0x63, 0x68, 0x5f, 0x6e, 0x6f, 0x72, 0x6d, 0x5f, 0x6c, 0x65,
    0x67, 0x69, 0x74, 0x5f, 0x6e, 0x6f, 0x5f, 0x74, 0x72, 0x61, 0x69, 0x6e,
    0x69, 0x6e, 0x67, 0x2e, 0x64, 0x65, 0x66, 0x61, 0x75, 0x6c, 0x74, 0x4a,
    0x56, 0x0a, 0x21, 0x70, 0x6b, 0x67, 0x2e, 0x6f, 0x6e, 0x6e, 0x78, 0x73,
    0x63, 0x72, 0x69, 0x70, 0x74, 0x2e, 0x72, 0x65, 0x77, 0x72, 0x69, 0x74,
    0x65, 0x72, 0x2e, 0x72, 0x75, 0x6c, 0x65, 0x5f, 0x6e, 0x61, 0x6d, 0x65,
    0x12, 0x31, 0x46, 0x75, 0x73, 0x65, 0x42, 0x61, 0x74, 0x63, 0x68, 0x4e,
    0x6f, 0x72, 0x6d, 0x49, 0x6e, 0x74, 0x6f, 0x43, 0x6f, 0x6e, 0x76, 0x2c,
    0x20, 0x52, 0x65, 0x6d, 0x6f, 0x76, 0x65, 0x4f, 0x70, 0x74, 0x69, 0x6f,
    0x6e, 0x61, 0x6c, 0x42, 0x69, 0x61, 0x73, 0x46, 0x72, 0x6f, 0x6d, 0x43,
    0x6f, 0x6e, 0x76, 0x4a, 0xf8, 0x01, 0x0a, 0x1e, 0x70, 0x6b, 0x67, 0x2e,
    0x74, 0x6f, 0x72, 0x63, 0x68, 0x2e, 0x6f, 0x6e, 0x6e, 0x78, 0x2e, 0x63,
    0x6c, 0x61, 0x73, 0x73, 0x5f, 0x68, 0x69, 0x65, 0x72, 0x61, 0x72, 0x63,
    0x68, 0x79, 0x12, 0xd5, 0x01, 0x5b, 0x27, 0x73, 0x6c, 0x65, 0x65, 0x70,
    0x5f, 0x73, 0x74, 0x61, 0x67, 0x69, 0x6e, 0x67, 0x2e, 0x6d, 0x6f, 0x64,
    0x65, 0x6c, 0x73, 0x2e, 0x53, 0x74, 0x75, 0x64, 0x65, 0x6e, 0x74, 0x43,
    0x52, 0x4e, 0x4e, 0x27, 0x2c, 0x20, 0x27, 0x74, 0x6f, 0x72, 0x63, 0x68,
    0x2e, 0x6e, 0x6e, 0x2e, 0x6d, 0x6f, 0x64, 0x75, 0x6c, 0x65, 0x73, 0x2e,
    0x63, 0x6f, 0x6e, 0x74, 0x61, 0x69, 0x6e, 0x65, 0x72, 0x2e, 0x53, 0x65,
    0x71, 0x75, 0x65, 0x6e, 0x74, 0x69, 0x61, 0x6c, 0x27, 0x2c, 0x20, 0x27,
    0x73, 0x6c, 0x65, 0x65, 0x70, 0x5f, 0x73, 0x74, 0x61, 0x67, 0x69, 0x6e,
    0x67, 0x2e, 0x6d, 0x6f, 0x64, 0x65, 0x6c, 0x73, 0x2e, 0x44, 0x65, 0x70,
    0x74, 0x68, 0x77, 0x69, 0x73, 0x65, 0x53, 0x65, 0x70, 0x43, 0x6f, 0x6e,
    0x76, 0x27, 0x2c, 0x20, 0x27, 0x74, 0x6f, 0x72, 0x63, 0x68, 0x2e, 0x6e,
    0x6e, 0x2e, 0x6d, 0x6f, 0x64, 0x75, 0x6c, 0x65, 0x73, 0x2e, 0x62, 0x61,
    0x74, 0x63, 0x68, 0x6e, 0x6f, 0x72, 0x6d, 0x2e, 0x42, 0x61, 0x74, 0x63,
    0x68, 0x4e, 0x6f, 0x72, 0x6d, 0x32, 0x64, 0x27, 0x2c, 0x20, 0x27, 0x61,
    0x74, 0x65, 0x6e, 0x2e, 0x5f, 0x6e, 0x61, 0x74, 0x69, 0x76, 0x65, 0x5f,
    0x62, 0x61, 0x74, 0x63, 0x68, 0x5f, 0x6e, 0x6f, 0x72, 0x6d, 0x5f, 0x6c,
    0x65, 0x67, 0x69, 0x74, 0x5f, 0x6e, 0x6f, 0x5f, 0x74, 0x72, 0x61, 0x69,
    0x6e, 0x69, 0x6e, 0x67, 0x2e, 0x64, 0x65, 0x66, 0x61, 0x75, 0x6c, 0x74,
    0x27, 0x5d, 0x4a, 0xac, 0x02, 0x0a, 0x16, 0x70, 0x6b, 0x67, 0x2e, 0x74,
    0x6f, 0x72, 0x63, 0x68, 0x2e, 0x6f, 0x6e, 0x6e, 0x78, 0x2e, 0x66, 0x78,
    0x5f, 0x6e, 0x6f, 0x64, 0x65, 0x12, 0x91, 0x02, 0x25, 0x5f, 0x6e, 0x61,
    0x74, 0x69, 0x76, 0x65, 0x5f, 0x62, 0x61, 0x74, 0x63, 0x68, 0x5f, 0x6e,
    0x6f, 0x72, 0x6d, 0x5f, 0x6c, 0x65, 0x67, 0x69, 0x74, 0x5f, 0x6e, 0x6f,
    0x5f, 0x74, 0x72, 0x61, 0x69, 0x6e, 0x69, 0x6e, 0x67, 0x5f, 0x31, 0x20,
    0x3a, 0x20, 0x5b, 0x6e, 0x75, 0x6d, 0x5f, 0x75, 0x73, 0x65, 0x72, 0x73,
    0x3d, 0x31, 0x5d, 0x20, 0x3d, 0x20, 0x63, 0x61, 0x6c, 0x6c, 0x5f, 0x66,
    0x75, 0x6e, 0x63, 0x74, 0x69, 0x6f, 0x6e, 0x5b, 0x74, 0x61, 0x72, 0x67,
    0x65, 0x74, 0x3d, 0x74, 0x6f, 0x72, 0x63, 0x68, 0x2e, 0x6f, 0x70, 0x73,
    0x2e, 0x61, 0x74, 0x65, 0x6e, 0x2e, 0x5f, 0x6e, 0x61, 0x74, 0x69, 0x76,
    0x65, 0x5f, 0x62, 0x61, 0x74, 0x63, 0x68, 0x5f, 0x6e, 0x6f, 0x72, 0x6d,
    0x5f, 0x6c, 0x65, 0x67, 0x69, 0x74, 0x5f, 0x6e, 0x6f, 0x5f, 0x74, 0x72,
    0x61, 0x69, 0x6e, 0x69, 0x6e, 0x67, 0x2e, 0x64, 0x65, 0x66, 0x61, 0x75,
    0x6c, 0x74, 0x5d, 0x28, 0x61, 0x72, 0x67, 0x73, 0x20, 0x3d, 0x20, 0x28,
    0x25, 0x63, 0x6f, 0x6e, 0x76, 0x32, 0x64, 0x5f, 0x32, 0x2c, 0x20, 0x25,
    0x70, 0x5f, 0x63, 0x6e, 0x6e, 0x5f, 0x33, 0x5f, 0x62, 0x6e, 0x5f, 0x77,
    0x65, 0x69, 0x67, 0x68, 0x74, 0x2c, 0x20, 0x25, 0x70, 0x5f, 0x63, 0x6e,
    0x6e, 0x5f, 0x33, 0x5f, 0x62, 0x6e, 0x5f, 0x62, 0x69, 0x61, 0x73, 0x2c,
    0x20, 0x25, 0x62, 0x5f, 0x63, 0x6e, 0x6e, 0x5f, 0x33, 0x5f, 0x62, 0x6e,
    0x5f, 0x72, 0x75, 0x6e, 0x6e, 0x69, 0x6e, 0x67, 0x5f, 0x6d, 0x65, 0x61,
    0x6e, 0x2c, 0x20, 0x25, 0x62, 0x5f, 0x63, 0x6e, 0x6e, 0x5f, 0x33, 0x5f,
    0x62, 0x6e, 0x5f, 0x72, 0x75, 0x6e, 0x6e, 0x69, 0x6e, 0x67, 0x5f, 0x76,
    0x61, 0x72, 0x2c, 0x20, 0x30, 0x2e, 0x31, 0x2c, 0x20, 0x31, 0x65, 0x2d,
    0x30, 0x35, 0x29, 0x2c, 0x20, 0x6b, 0x77, 0x61, 0x72, 0x67, 0x73, 0x20,
    0x3d, 0x20, 0x7b, 0x7d, 0x29, 0x4a, 0x68, 0x0a, 0x1a, 0x70, 0x6b, 0x67,
    0x2e, 0x74, 0x6f, 0x72, 0x63, 0x68, 0x2e, 0x6f, 0x6e, 0x6e, 0x78, 0x2e,
    0x6e, 0x61, 0x6d, 0x65, 0x5f, 0x73, 0x63, 0x6f, 0x70, 0x65, 0x73, 0x12,
    0x4a, 0x5b, 0x27, 0x27, 0x2c, 0x20, 0x27, 0x63, 0x6e, 0x6e, 0x27, 0x2c,
    0x20, 0x27, 0x63, 0x6e, 0x6e, 0x2e, 0x33, 0x27, 0x2c, 0x20, 0x27, 0x63,
    0x6e, 0x6e, 0x2e, 0x33, 0x2e, 0x62, 0x6e, 0x27, 0x2c, 0x20, 0x27, 0x5f,
    0x6e, 0x61, 0x74, 0x69, 0x76, 0x65, 0x5f, 0x62, 0x61, 0x74, 0x63, 0x68,
    0x5f, 0x6e, 0x6f, 0x72, 0x6d, 0x5f, 0x6c, 0x65, 0x67, 0x69, 0x74, 0x5f,
    0x6e, 0x6f, 0x5f, 0x74, 0x72, 0x61, 0x69, 0x6e, 0x69, 0x6e, 0x67, 0x5f,
    0x31, 0x27, 0x5d, 0x4a, 0x86, 0x06, 0x0a, 0x1a, 0x70, 0x6b, 0x67, 0x2e,
    0x74, 0x6f, 0x72, 0x63, 0x68, 0x2e, 0x6f, 0x6e, 0x6e, 0x78, 0x2e, 0x73,
    0x74, 0x61, 0x63, 0x6b, 0x5f, 0x74, 0x72, 0x61, 0x63, 0x65, 0x12, 0xe7,
    0x05, 0x46, 0x69, 0x6c, 0x65, 0x20, 0x22, 0x43, 0x3a, 0x5c, 0x50, 0x72,
    0x6f, 0x6a, 0x65, 0x63, 0x74, 0x5c, 0x43, 0x4e, 0x4e, 0x2d, 0x45, 0x43,
    0x47, 0x5c, 0x73, 0x72, 0x63, 0x5c, 0x73, 0x6c, 0x65, 0x65, 0x70, 0x5f,
    0x73, 0x74, 0x61, 0x67, 0x69, 0x6e, 0x67, 0x5c, 0x6d, 0x6f, 0x64, 0x65,
    0x6c, 0x73, 0x2e, 0x70, 0x79, 0x22, 0x2c, 0x20, 0x6c, 0x69, 0x6e, 0x65,
    0x20, 0x31, 0x30, 0x34, 0x2c, 0x20, 0x69, 0x6e, 0x20, 0x66, 0x6f, 0x72,
    0x77, 0x61, 0x72, 0x64, 0x0a, 0x20, 0x20, 0x20, 0x20, 0x66, 0x65, 0x61,
    0x74, 0x73, 0x20, 0x3d, 0x20, 0x73, 0x65, 0x6c, 0x66, 0x2e, 0x63, 0x6e,
    0x6e, 0x28, 0x78, 0x2e, 0x76, 0x69, 0x65, 0x77, 0x28, 0x62, 0x73, 0x7a,
    0x20, 0x2a, 0x20, 0x73, 0x65, 0x71, 0x5f, 0x6c, 0x65, 0x6e, 0x2c, 0x20,
    0x63, 0x68, 0x61, 0x6e, 0x6e, 0x65, 0x6c, 0x73, 0x2c, 0x20, 0x66, 0x72,
    0x65, 0x71, 0x73, 0x2c, 0x20, 0x74, 0x69, 0x6d, 0x65, 0x73, 0x29, 0x29,
    0x2e, 0x76, 0x69, 0x65, 0x77, 0x28, 0x62, 0x73, 0x7a, 0x2c, 0x20, 0x73,
    0x65, 0x71, 0x5f, 0x6c, 0x65, 0x6e, 0x2c, 0x20, 0x36, 0x34, 0x29, 0x0a,
    0x20, 0x20, 0x46, 0x69, 0x6c, 0x65, 0x20, 0x22, 0x43, 0x3a, 0x5c, 0x55,
    0x73, 0x65, 0x72, 0x73, 0x5c, 0x73, 0x68, 0x61, 0x6d, 0x69, 0x5c, 0x41,
    0x70, 0x70, 0x44, 0x61, 0x74, 0x61, 0x5c, 0x4c, 0x6f, 0x63, 0x61, 0x6c,
    0x5c, 0x50, 0x61, 0x63, 0x6b, 0x61, 0x67, 0x65, 0x73, 0x5c, 0x50, 0x79,
    0x74, 0x68, 0x6f, 0x6e, 0x53, 0x6f, 0x66, 0x74, 0x77, 0x61, 0x72, 0x65,
    0x46, 0x6f, 0x75, 0x6e, 0x64, 0x61, 0x74, 0x69, 0x6f, 0x6e, 0x2e, 0x50,
    0x79, 0x74, 0x68, 0x6f, 0x6e, 0x2e, 0x33, 0x2e, 0x31, 0x31, 0x5f, 0x71,
    0x62, 0x7a, 0x35, 0x6e, 0x32, 0x6b, 0x66, 0x72, 0x61, 0x38, 0x70, 0x30,
    0x5c, 0x4c, 0x6f, 0x63, 0x61, 0x6c, 0x43, 0x61, 0x63, 0x68, 0x65, 0x5c,
    0x6c, 0x6f, 0x63, 0x61, 0x6c, 0x2d, 0x70, 0x61, 0x63, 0x6b, 0x61, 0x67,
    0x65, 0x73, 0x5c, 0x50, 0x79, 0x74, 0x68, 0x6f, 0x6e, 0x33, 0x31, 0x31,
    0x5c, 0x73, 0x69, 0x74, 0x65, 0x2d, 0x70, 0x61, 0x63, 0x6b, 0x61, 0x67,
    0x65, 0x73, 0x5c, 0x74, 0x6f, 0x72, 0x63, 0x68, 0x5c, 0x6e, 0x6e, 0x5c,
    0x6d, 0x6f, 0x64, 0x75, 0x6c, 0x65, 0x73, 0x5c, 0x63, 0x6f, 0x6e, 0x74,
    0x61, 0x69, 0x6e, 0x65, 0x72, 0x2e, 0x70, 0x79, 0x22, 0x2c, 0x20, 0x6c,
    0x69, 0x6e, 0x65, 0x20, 0x32, 0x35, 0x30, 0x2c, 0x20, 0x69, 0x6e, 0x20,
    0x66, 0x6f, 0x72, 0x77, 0x61, 0x72, 0x64, 0x0a, 0x20, 0x20, 0x20, 0x20,
    0x69, 0x6e, 0x70, 0x75, 0x74, 0x20, 0x3d, 0x20, 0x6d, 0x6f, 0x64, 0x75,
    0x6c, 0x65, 0x28, 0x69, 0x6e, 0x70, 0x75, 0x74, 0x29, 0x0a, 0x20, 0x20,
    0x46, 0x69, 0x6c, 0x65, 0x20, 0x22, 0x43, 0x3a, 0x5c, 0x50, 0x72, 0x6f,
    0x6a, 0x65, 0x63, 0x74, 0x5c, 0x43, 0x4e, 0x4e, 0x2d, 0x45, 0x43, 0x47,
    0x5c, 0x73, 0x72, 0x63, 0x5c, 0x73, 0x6c, 0x65, 0x65, 0x70, 0x5f, 0x73,
    0x74, 0x61, 0x67, 0x69, 0x6e, 0x67, 0x5c, 0x6d, 0x6f, 0x64, 0x65, 0x6c,
    0x73, 0x2e, 0x70, 0x79, 0x22, 0x2c, 0x20, 0x6c, 0x69, 0x6e, 0x65, 0x20,
    0x38, 0x31, 0x2c, 0x20, 0x69, 0x6e, 0x20, 0x66, 0x6f, 0x72, 0x77, 0x61,
    0x72, 0x64, 0x0a, 0x20, 0x20, 0x20, 0x20, 0x72, 0x65, 0x74, 0x75, 0x72,
    0x6e, 0x20, 0x46, 0x2e, 0x72, 0x65, 0x6c, 0x75, 0x36, 0x28, 0x73, 0x65,
    0x6c, 0x66, 0x2e, 0x62, 0x6e, 0x28, 0x73, 0x65, 0x6c, 0x66, 0x2e, 0x70,
    0x77, 0x28, 0x73, 0x65, 0x6c, 0x66, 0x2e, 0x64, 0x77, 0x28, 0x78, 0x29,
    0x29, 0x29, 0x29, 0x0a, 0x20, 0x20, 0x46, 0x69, 0x6c, 0x65, 0x20, 0x22,
    0x43, 0x3a, 0x5c, 0x55, 0x73, 0x65, 0x72, 0x73, 0x5c, 0x73, 0x68, 0x61,
    0x6d, 0x69, 0x5c, 0x41, 0x70, 0x70, 0x44, 0x61, 0x74, 0x61, 0x5c, 0x4c,
    0x6f, 0x63, 0x61, 0x6c, 0x5c, 0x50, 0x61, 0x63, 0x6b, 0x61, 0x67, 0x65,
    0x73, 0x5c, 0x50, 0x79, 0x74, 0x68, 0x6f, 0x6e, 0x53, 0x6f, 0x66, 0x74,
    0x77, 0x61, 0x72, 0x65, 0x46, 0x6f, 0x75, 0x6e, 0x64, 0x61, 0x74, 0x69,
    0x6f, 0x6e, 0x2e, 0x50, 0x79, 0x74, 0x68, 0x6f, 0x6e, 0x2e, 0x33, 0x2e,
    0x31, 0x31, 0x5f, 0x71, 0x62, 0x7a, 0x35, 0x6e, 0x32, 0x6b, 0x66, 0x72,
    0x61, 0x38, 0x70, 0x30, 0x5c, 0x4c, 0x6f, 0x63, 0x61, 0x6c, 0x43, 0x61,
    0x63, 0x68, 0x65, 0x5c, 0x6c, 0x6f, 0x63, 0x61, 0x6c, 0x2d, 0x70, 0x61,
    0x63, 0x6b, 0x61, 0x67, 0x65, 0x73, 0x5c, 0x50, 0x79, 0x74, 0x68, 0x6f,
    0x6e, 0x33, 0x31, 0x31, 0x5c, 0x73, 0x69, 0x74, 0x65, 0x2d, 0x70, 0x61,
    0x63, 0x6b, 0x61, 0x67, 0x65, 0x73, 0x5c, 0x74, 0x6f, 0x72, 0x63, 0x68,
    0x5c, 0x6e, 0x6e, 0x5c, 0x6d, 0x6f, 0x64, 0x75, 0x6c, 0x65, 0x73, 0x5c,
    0x62, 0x61, 0x74, 0x63, 0x68, 0x6e, 0x6f, 0x72, 0x6d, 0x2e, 0x70, 0x79,
    0x22, 0x2c, 0x20, 0x6c, 0x69, 0x6e, 0x65, 0x20, 0x31, 0x39, 0x33, 0x2c,
    0x20, 0x69, 0x6e, 0x20, 0x66, 0x6f, 0x72, 0x77, 0x61, 0x72, 0x64, 0x0a,
    0x20, 0x20, 0x20, 0x20, 0x72, 0x65, 0x74, 0x75, 0x72, 0x6e, 0x20, 0x46,
    0x2e, 0x62, 0x61, 0x74, 0x63, 0x68, 0x5f, 0x6e, 0x6f, 0x72, 0x6d, 0x28,
    0x0a, 0xee, 0x08, 0x0a, 0x09, 0x67, 0x65, 0x74, 0x69, 0x74, 0x65, 0x6d,
    0x5f, 0x33, 0x12, 0x06, 0x76, 0x61, 0x6c, 0x5f, 0x34, 0x30, 0x1a, 0x0c,
    0x6e, 0x6f, 0x64, 0x65, 0x5f, 0x52, 0x65, 0x6c, 0x75, 0x5f, 0x34, 0x30,
    0x22, 0x04, 0x52, 0x65, 0x6c, 0x75, 0x4a, 0xa2, 0x01, 0x0a, 0x09, 0x6e,
    0x61, 0x6d, 0x65, 0x73, 0x70, 0x61, 0x63, 0x65, 0x12, 0x94, 0x01, 0x3a,
    0x20, 0x73, 0x6c, 0x65, 0x65, 0x70, 0x5f, 0x73, 0x74, 0x61, 0x67, 0x69,
    0x6e, 0x67, 0x2e, 0x6d, 0x6f, 0x64, 0x65, 0x6c, 0x73, 0x2e, 0x53, 0x74,
    0x75, 0x64, 0x65, 0x6e, 0x74, 0x43, 0x52, 0x4e, 0x4e, 0x2f, 0x63, 0x6e,
    0x6e, 0x3a, 0x20, 0x74, 0x6f, 0x72, 0x63, 0x68, 0x2e, 0x6e, 0x6e, 0x2e,
    0x6d, 0x6f, 0x64, 0x75, 0x6c, 0x65, 0x73, 0x2e, 0x63, 0x6f, 0x6e, 0x74,
    0x61, 0x69, 0x6e, 0x65, 0x72, 0x2e, 0x53, 0x65, 0x71, 0x75, 0x65, 0x6e,
    0x74, 0x69, 0x61, 0x6c, 0x2f, 0x63, 0x6e, 0x6e, 0x2e, 0x33, 0x3a, 0x20,
    0x73, 0x6c, 0x65, 0x65, 0x70, 0x5f, 0x73, 0x74, 0x61, 0x67, 0x69, 0x6e,
    0x67, 0x2e, 0x6d, 0x6f, 0x64, 0x65, 0x6c, 0x73, 0x2e, 0x44, 0x65, 0x70,
    0x74, 0x68, 0x77, 0x69, 0x73, 0x65, 0x53, 0x65, 0x70, 0x43, 0x6f, 0x6e,
    0x76, 0x2f, 0x72, 0x65, 0x6c, 0x75, 0x36, 0x3a, 0x20, 0x61, 0x74, 0x65,
    0x6e, 0x2e, 0x72, 0x65, 0x6c, 0x75, 0x36, 0x2e, 0x64, 0x65, 0x66, 0x61,
    0x75, 0x6c, 0x74, 0x4a, 0xaf, 0x01, 0x0a, 0x1e, 0x70, 0x6b, 0x67, 0x2e,
    0x74, 0x6f, 0x72, 0x63, 0x68, 0x2e, 0x6f, 0x6e, 0x6e, 0x78, 0x2e, 0x63,
    0x6c, 0x61, 0x73, 0x73, 0x5f, 0x68, 0x69, 0x65, 0x72, 0x61, 0x72, 0x63,
    0x68, 0x79, 0x12, 0x8c, 0x01, 0x5b, 0x27, 0x73, 0x6c, 0x65, 0x65, 0x70,
    0x5f, 0x73, 0x74, 0x61, 0x67, 0x69, 0x6e, 0x67, 0x2e, 0x6d, 0x6f, 0x64,
    0x65, 0x6c, 0x73, 0x2e, 0x53, 0x74, 0x75, 0x64, 0x65, 0x6e, 0x74, 0x43,
    0x52, 0x4e, 0x4e, 0x27, 0x2c, 0x20, 0x27, 0x74, 0x6f, 0x72, 0x63, 0x68,
    0x2e, 0x6e, 0x6e, 0x2e, 0x6d, 0x6f, 0x64, 0x75, 0x6c, 0x65, 0x73, 0x2e,
    0x63, 0x6f, 0x6e, 0x74, 0x61, 0x69, 0x6e, 0x65, 0x72, 0x2e, 0x53, 0x65,
    0x71, 0x75, 0x65, 0x6e, 0x74, 0x69, 0x61, 0x6c, 0x27, 0x2c, 0x20, 0x27,
    0x73, 0x6c, 0x65, 0x65, 0x70, 0x5f, 0x73, 0x74, 0x61, 0x67, 0x69, 0x6e,
    0x67, 0x2e, 0x6d, 0x6f, 0x64, 0x65, 0x6c, 0x73, 0x2e, 0x44, 0x65, 0x70,
    0x74, 0x68, 0x77, 0x69, 0x73, 0x65, 0x53, 0x65, 0x70, 0x43, 0x6f, 0x6e,
    0x76, 0x27, 0x2c, 0x20, 0x27, 0x61, 0x74, 0x65, 0x6e, 0x2e, 0x72, 0x65,
    0x6c, 0x75, 0x36, 0x2e, 0x64, 0x65, 0x66, 0x61, 0x75, 0x6c, 0x74, 0x27,
    0x5d, 0x4a, 0x88, 0x01, 0x0a, 0x16, 0x70, 0x6b, 0x67, 0x2e, 0x74, 0x6f,
    0x72, 0x63, 0x68, 0x2e, 0x6f, 0x6e, 0x6e, 0x78, 0x2e, 0x66, 0x78, 0x5f,
    0x6e, 0x6f, 0x64, 0x65, 0x12, 0x6e, 0x25, 0x72, 0x65, 0x6c, 0x75, 0x36,
    0x20, 0x3a, 0x20, 0x5b, 0x6e, 0x75, 0x6d, 0x5f, 0x75, 0x73, 0x65, 0x72,
    0x73, 0x3d, 0x31, 0x5d, 0x20, 0x3d, 0x20, 0x63, 0x61, 0x6c, 0x6c, 0x5f,
    0x66, 0x75, 0x6e, 0x63, 0x74, 0x69, 0x6f, 0x6e, 0x5b, 0x74, 0x61, 0x72,
    0x67, 0x65, 0x74, 0x3d, 0x74, 0x6f, 0x72, 0x63, 0x68, 0x2e, 0x6f, 0x70,
    0x73, 0x2e, 0x61, 0x74, 0x65, 0x6e, 0x2e, 0x72, 0x65, 0x6c, 0x75, 0x36,
    0x2e, 0x64, 0x65, 0x66, 0x61, 0x75, 0x6c, 0x74, 0x5d, 0x28, 0x61, 0x72,
    0x67, 0x73, 0x20, 0x3d, 0x20, 0x28, 0x25, 0x67, 0x65, 0x74, 0x69, 0x74,
    0x65, 0x6d, 0x5f, 0x33, 0x2c, 0x29, 0x2c, 0x20, 0x6b, 0x77, 0x61, 0x72,
    0x67, 0x73, 0x20, 0x3d, 0x20, 0x7b, 0x7d, 0x29, 0x4a, 0x3b, 0x0a, 0x1a,
    0x70, 0x6b, 0x67, 0x2e, 0x74, 0x6f, 0x72, 0x63, 0x68, 0x2e, 0x6f, 0x6e,
    0x6e, 0x78, 0x2e, 0x6e, 0x61, 0x6d, 0x65, 0x5f, 0x73, 0x63, 0x6f, 0x70,
    0x65, 0x73, 0x12, 0x1d, 0x5b, 0x27, 0x27, 0x2c, 0x20, 0x27, 0x63, 0x6e,
    0x6e, 0x27, 0x2c, 0x20, 0x27, 0x63, 0x6e, 0x6e, 0x2e, 0x33, 0x27, 0x2c,
    0x20, 0x27, 0x72, 0x65, 0x6c, 0x75, 0x36, 0x27, 0x5d, 0x4a, 0xa5, 0x04,
    0x0a, 0x1a, 0x70, 0x6b, 0x67, 0x2e, 0x74, 0x6f, 0x72, 0x63, 0x68, 0x2e,
    0x6f, 0x6e, 0x6e, 0x78, 0x2e, 0x73, 0x74, 0x61, 0x63, 0x6b, 0x5f, 0x74,
    0x72, 0x61, 0x63, 0x65, 0x12, 0x86, 0x04, 0x46, 0x69, 0x6c, 0x65, 0x20,
    0x22, 0x43, 0x3a, 0x5c, 0x50, 0x72, 0x6f, 0x6a, 0x65, 0x63, 0x74, 0x5c,
    0x43, 0x4e, 0x4e, 0x2d, 0x45, 0x43, 0x47, 0x5c, 0x73, 0x72, 0x63, 0x5c,
    0x73, 0x6c, 0x65, 0x65, 0x70, 0x5f, 0x73, 0x74, 0x61, 0x67, 0x69, 0x6e,
    0x67, 0x5c, 0x6d, 0x6f, 0x64, 0x65, 0x6c, 0x73, 0x2e, 0x70, 0x79, 0x22,
    0x2c, 0x20, 0x6c, 0x69, 0x6e, 0x65, 0x20, 0x31, 0x30, 0x34, 0x2c, 0x20,
    0x69, 0x6e, 0x20, 0x66, 0x6f, 0x72, 0x77, 0x61, 0x72, 0x64, 0x0a, 0x20,
    0x20, 0x20, 0x20, 0x66, 0x65, 0x61, 0x74, 0x73, 0x20, 0x3d, 0x20, 0x73,
    0x65, 0x6c, 0x66, 0x2e, 0x63, 0x6e, 0x6e, 0x28, 0x78, 0x2e, 0x76, 0x69,
    0x65, 0x77, 0x28, 0x62, 0x73, 0x7a, 0x20, 0x2a, 0x20, 0x73, 0x65, 0x71,
    0x5f, 0x6c, 0x65, 0x6e, 0x2c, 0x20, 0x63, 0x68, 0x61, 0x6e, 0x6e, 0x65,
    0x6c, 0x73, 0x2c, 0x20, 0x66, 0x72, 0x65, 0x71, 0x73, 0x2c, 0x20, 0x74,
    0x69, 0x6d, 0x65, 0x73, 0x29, 0x29, 0x2e, 0x76, 0x69, 0x65, 0x77, 0x28,
    0x62, 0x73, 0x7a, 0x2c, 0x20, 0x73, 0x65, 0x71, 0x5f, 0x6c, 0x65, 0x6e,
    0x2c, 0x20, 0x36, 0x34, 0x29, 0x0a, 0x20, 0x20, 0x46, 0x69, 0x6c, 0x65,
    0x20, 0x22, 0x43, 0x3a, 0x5c, 0x55, 0x73, 0x65, 0x72, 0x73, 0x5c, 0x73,
    0x68, 0x61, 0x6d, 0x69, 0x5c, 0x41, 0x70, 0x70, 0x44, 0x61, 0x74, 0x61,
    0x5c, 0x4c, 0x6f, 0x63, 0x61, 0x6c, 0x5c, 0x50, 0x61, 0x63, 0x6b, 0x61,
    0x67, 0x65, 0x73, 0x5c, 0x50, 0x79, 0x74, 0x68, 0x6f, 0x6e, 0x53, 0x6f,
    0x66, 0x74, 0x77, 0x61, 0x72, 0x65, 0x46, 0x6f, 0x75, 0x6e, 0x64, 0x61,
    0x74, 0x69, 0x6f, 0x6e, 0x2e, 0x50, 0x79, 0x74, 0x68, 0x6f, 0x6e, 0x2e,
    0x33, 0x2e, 0x31, 0x31, 0x5f, 0x71, 0x62, 0x7a, 0x35, 0x6e, 0x32, 0x6b,
    0x66, 0x72, 0x61, 0x38, 0x70, 0x30, 0x5c, 0x4c, 0x6f, 0x63, 0x61, 0x6c,
    0x43, 0x61, 0x63, 0x68, 0x65, 0x5c, 0x6c, 0x6f, 0x63, 0x61, 0x6c, 0x2d,
    0x70, 0x61, 0x63, 0x6b, 0x61, 0x67, 0x65, 0x73, 0x5c, 0x50, 0x79, 0x74,
    0x68, 0x6f, 0x6e, 0x33, 0x31, 0x31, 0x5c, 0x73, 0x69, 0x74, 0x65, 0x2d,
    0x70, 0x61, 0x63, 0x6b, 0x61, 0x67, 0x65, 0x73, 0x5c, 0x74, 0x6f, 0x72,
    0x63, 0x68, 0x5c, 0x6e, 0x6e, 0x5c, 0x6d, 0x6f, 0x64, 0x75, 0x6c, 0x65,
    0x73, 0x5c, 0x63, 0x6f, 0x6e, 0x74, 0x61, 0x69, 0x6e, 0x65, 0x72, 0x2e,
    0x70, 0x79, 0x22, 0x2c, 0x20, 0x6c, 0x69, 0x6e, 0x65, 0x20, 0x32, 0x35,
    0x30, 0x2c, 0x20, 0x69, 0x6e, 0x20, 0x66, 0x6f, 0x72, 0x77, 0x61, 0x72,
    0x64, 0x0a, 0x20, 0x20, 0x20, 0x20, 0x69, 0x6e, 0x70, 0x75, 0x74, 0x20,
    0x3d, 0x20, 0x6d, 0x6f, 0x64, 0x75, 0x6c, 0x65, 0x28, 0x69, 0x6e, 0x70,
    0x75, 0x74, 0x29, 0x0a, 0x20, 0x20, 0x46, 0x69, 0x6c, 0x65, 0x20, 0x22,
    0x43, 0x3a, 0x5c, 0x50, 0x72, 0x6f, 0x6a, 0x65, 0x63, 0x74, 0x5c, 0x43,
    0x4e, 0x4e, 0x2d, 0x45, 0x43, 0x47, 0x5c, 0x73, 0x72, 0x63, 0x5c, 0x73,
    0x6c, 0x65, 0x65, 0x70, 0x5f, 0x73, 0x74, 0x61, 0x67, 0x69, 0x6e, 0x67,
    0x5c, 0x6d, 0x6f, 0x64, 0x65, 0x6c, 0x73, 0x2e, 0x70, 0x79, 0x22, 0x2c,
    0x20, 0x6c, 0x69, 0x6e, 0x65, 0x20, 0x38, 0x31, 0x2c, 0x20, 0x69, 0x6e,
    0x20, 0x66, 0x6f, 0x72, 0x77, 0x61, 0x72, 0x64, 0x0a, 0x20, 0x20, 0x20,
    0x20, 0x72, 0x65, 0x74, 0x75, 0x72, 0x6e, 0x20, 0x46, 0x2e, 0x72, 0x65,
    0x6c, 0x75, 0x36, 0x28, 0x73, 0x65, 0x6c, 0x66, 0x2e, 0x62, 0x6e, 0x28,
    0x73, 0x65, 0x6c, 0x66, 0x2e, 0x70, 0x77, 0x28, 0x73, 0x65, 0x6c, 0x66,
    0x2e, 0x64, 0x77, 0x28, 0x78, 0x29, 0x29, 0x29, 0x29, 0x0a, 0xf5, 0x08,
    0x0a, 0x06, 0x76, 0x61, 0x6c, 0x5f, 0x34, 0x30, 0x0a, 0x0c, 0x6d, 0x61,
    0x78, 0x5f, 0x76, 0x61, 0x6c, 0x5f, 0x63, 0x61, 0x73, 0x74, 0x12, 0x05,
    0x72, 0x65, 0x6c, 0x75, 0x36, 0x1a, 0x0a, 0x6e, 0x6f, 0x64, 0x65, 0x5f,
    0x72, 0x65, 0x6c, 0x75, 0x36, 0x22, 0x03, 0x4d, 0x69, 0x6e, 0x4a, 0xa2,
    0x01, 0x0a, 0x09, 0x6e, 0x61, 0x6d, 0x65, 0x73, 0x70, 0x61, 0x63, 0x65,
    0x12, 0x94, 0x01, 0x3a, 0x20, 0x73, 0x6c, 0x65, 0x65, 0x70, 0x5f, 0x73,
    0x74, 0x61, 0x67, 0x69, 0x6e, 0x67, 0x2e, 0x6d, 0x6f, 0x64, 0x65, 0x6c,
    0x73, 0x2e, 0x53, 0x74, 0x75, 0x64, 0x65, 0x6e, 0x74, 0x43, 0x52, 0x4e,
    0x4e, 0x2f, 0x63, 0x6e, 0x6e, 0x3a, 0x20, 0x74, 0x6f, 0x72, 0x63, 0x68,
    0x2e, 0x6e, 0x6e, 0x2e, 0x6d, 0x6f, 0x64, 0x75, 0x6c, 0x65, 0x73, 0x2e,
    0x63, 0x6f, 0x6e, 0x74, 0x61, 0x69, 0x6e, 0x65, 0x72, 0x2e, 0x53, 0x65,
    0x71, 0x75, 0x65, 0x6e, 0x74, 0x69, 0x61, 0x6c, 0x2f, 0x63, 0x6e, 0x6e,
    0x2e, 0x33, 0x3a, 0x20, 0x73, 0x6c, 0x65, 0x65, 0x70, 0x5f, 0x73, 0x74,
    0x61, 0x67, 0x69, 0x6e, 0x67, 0x2e, 0x6d, 0x6f, 0x64, 0x65, 0x6c, 0x73,
    0x2e, 0x44, 0x65, 0x70, 0x74, 0x68, 0x77, 0x69, 0x73, 0x65, 0x53, 0x65,
    0x70, 0x43, 0x6f, 0x6e, 0x76, 0x2f, 0x72, 0x65, 0x6c, 0x75, 0x36, 0x3a,
    0x20, 0x61, 0x74, 0x65, 0x6e, 0x2e, 0x72, 0x65, 0x6c, 0x75, 0x36, 0x2e,
    0x64, 0x65, 0x66, 0x61, 0x75, 0x6c, 0x74, 0x4a, 0xaf, 0x01, 0x0a, 0x1e,
    0x70, 0x6b, 0x67, 0x2e, 0x74, 0x6f, 0x72, 0x63, 0x68, 0x2e, 0x6f, 0x6e,
    0x6e, 0x78, 0x2e, 0x63, 0x6c, 0x61, 0x73, 0x73, 0x5f, 0x68, 0x69, 0x65,
    0x72, 0x61, 0x72, 0x63, 0x68, 0x79, 0x12, 0x8c, 0x01, 0x5b, 0x27, 0x73,
    0x6c, 0x65, 0x65, 0x70, 0x5f, 0x73, 0x74, 0x61, 0x67, 0x69, 0x6e, 0x67,
    0x2e, 0x6d, 0x6f, 0x64, 0x65, 0x6c, 0x73, 0x2e, 0x53, 0x74, 0x75, 0x64,
    0x65, 0x6e, 0x74, 0x43, 0x52, 0x4e, 0x4e, 0x27, 0x2c, 0x20, 0x27, 0x74,
    0x6f, 0x72, 0x63, 0x68, 0x2e, 0x6e, 0x6e, 0x2e, 0x6d, 0x6f, 0x64, 0x75,
    0x6c, 0x65, 0x73, 0x2e, 0x63, 0x6f, 0x6e, 0x74, 0x61, 0x69, 0x6e, 0x65,
    0x72, 0x2e, 0x53, 0x65, 0x71, 0x75, 0x65, 0x6e, 0x74, 0x69, 0x61, 0x6c,
    0x27, 0x2c, 0x20, 0x27, 0x73, 0x6c, 0x65, 0x65, 0x70, 0x5f, 0x73, 0x74,
    0x61, 0x67, 0x69, 0x6e, 0x67, 0x2e, 0x6d, 0x6f, 0x64, 0x65, 0x6c, 0x73,
    0x2e, 0x44, 0x65, 0x70, 0x74, 0x68, 0x77, 0x69, 0x73, 0x65, 0x53, 0x65,
    0x70, 0x43, 0x6f, 0x6e, 0x76, 0x27, 0x2c, 0x20, 0x27, 0x61, 0x74, 0x65,
    0x6e, 0x2e, 0x72, 0x65, 0x6c, 0x75, 0x36, 0x2e, 0x64, 0x65, 0x66, 0x61,
    0x75, 0x6c, 0x74, 0x27, 0x5d, 0x4a, 0x88, 0x01, 0x0a, 0x16, 0x70, 0x6b,
    0x67, 0x2e, 0x74, 0x6f, 0x72, 0x63, 0x68, 0x2e, 0x6f, 0x6e, 0x6e, 0x78,
    0x2e, 0x66, 0x78, 0x5f, 0x6e, 0x6f, 0x64, 0x65, 0x12, 0x6e, 0x25, 0x72,
    0x65, 0x6c, 0x75, 0x36, 0x20, 0x3a, 0x20, 0x5b, 0x6e, 0x75, 0x6d, 0x5f,
    0x75, 0x73, 0x65, 0x72, 0x73, 0x3d, 0x31, 0x5d, 0x20, 0x3d, 0x20, 0x63,
    0x61, 0x6c, 0x6c, 0x5f, 0x66, 0x75, 0x6e, 0x63, 0x74, 0x69, 0x6f, 0x6e,
    0x5b, 0x74, 0x61, 0x72, 0x67, 0x65, 0x74, 0x3d, 0x74, 0x6f, 0x72, 0x63,
    0x68, 0x2e, 0x6f, 0x70, 0x73, 0x2e, 0x61, 0x74, 0x65, 0x6e, 0x2e, 0x72,
    0x65, 0x6c, 0x75, 0x36, 0x2e, 0x64, 0x65, 0x66, 0x61, 0x75, 0x6c, 0x74,
    0x5d, 0x28, 0x61, 0x72, 0x67, 0x73, 0x20, 0x3d, 0x20, 0x28, 0x25, 0x67,
    0x65, 0x74, 0x69, 0x74, 0x65, 0x6d, 0x5f, 0x33, 0x2c, 0x29, 0x2c, 0x20,
    0x6b, 0x77, 0x61, 0x72, 0x67, 0x73, 0x20, 0x3d, 0x20, 0x7b, 0x7d, 0x29,
    0x4a, 0x3b, 0x0a, 0x1a, 0x70, 0x6b, 0x67, 0x2e, 0x74, 0x6f, 0x72, 0x63,
    0x68, 0x2e, 0x6f, 0x6e, 0x6e, 0x78, 0x2e, 0x6e, 0x61, 0x6d, 0x65, 0x5f,
    0x73, 0x63, 0x6f, 0x70, 0x65, 0x73, 0x12, 0x1d, 0x5b, 0x27, 0x27, 0x2c,
    0x20, 0x27, 0x63, 0x6e, 0x6e, 0x27, 0x2c, 0x20, 0x27, 0x63, 0x6e, 0x6e,
    0x2e, 0x33, 0x27, 0x2c, 0x20, 0x27, 0x72, 0x65, 0x6c, 0x75, 0x36, 0x27,
    0x5d, 0x4a, 0xa5, 0x04, 0x0a, 0x1a, 0x70, 0x6b, 0x67, 0x2e, 0x74, 0x6f,
    0x72, 0x63, 0x68, 0x2e, 0x6f, 0x6e, 0x6e, 0x78, 0x2e, 0x73, 0x74, 0x61,
    0x63, 0x6b, 0x5f, 0x74, 0x72, 0x61, 0x63, 0x65, 0x12, 0x86, 0x04, 0x46,
    0x69, 0x6c, 0x65, 0x20, 0x22, 0x43, 0x3a, 0x5c, 0x50, 0x72, 0x6f, 0x6a,
    0x65, 0x63, 0x74, 0x5c, 0x43, 0x4e, 0x4e, 0x2d, 0x45, 0x43, 0x47, 0x5c,
    0x73, 0x72, 0x63, 0x5c, 0x73, 0x6c, 0x65, 0x65, 0x70, 0x5f, 0x73, 0x74,
    0x61, 0x67, 0x69, 0x6e, 0x67, 0x5c, 0x6d, 0x6f, 0x64, 0x65, 0x6c, 0x73,
    0x2e, 0x70, 0x79, 0x22, 0x2c, 0x20, 0x6c, 0x69, 0x6e, 0x65, 0x20, 0x31,
    0x30, 0x34, 0x2c, 0x20, 0x69, 0x6e, 0x20, 0x66, 0x6f, 0x72, 0x77, 0x61,
    0x72, 0x64, 0x0a, 0x20, 0x20, 0x20, 0x20, 0x66, 0x65, 0x61, 0x74, 0x73,
    0x20, 0x3d, 0x20, 0x73, 0x65, 0x6c, 0x66, 0x2e, 0x63, 0x6e, 0x6e, 0x28,
    0x78, 0x2e, 0x76, 0x69, 0x65, 0x77, 0x28, 0x62, 0x73, 0x7a, 0x20, 0x2a,
    0x20, 0x73, 0x65, 0x71, 0x5f, 0x6c, 0x65, 0x6e, 0x2c, 0x20, 0x63, 0x68,
    0x61, 0x6e, 0x6e, 0x65, 0x6c, 0x73, 0x2c, 0x20, 0x66, 0x72, 0x65, 0x71,
    0x73, 0x2c, 0x20, 0x74, 0x69, 0x6d, 0x65, 0x73, 0x29, 0x29, 0x2e, 0x76,
    0x69, 0x65, 0x77, 0x28, 0x62, 0x73, 0x7a, 0x2c, 0x20, 0x73, 0x65, 0x71,
    0x5f, 0x6c, 0x65, 0x6e, 0x2c, 0x20, 0x36, 0x34, 0x29, 0x0a, 0x20, 0x20,
    0x46, 0x69, 0x6c, 0x65, 0x20, 0x22, 0x43, 0x3a, 0x5c, 0x55, 0x73, 0x65,
    0x72, 0x73, 0x5c, 0x73, 0x68, 0x61, 0x6d, 0x69, 0x5c, 0x41, 0x70, 0x70,
    0x44, 0x61, 0x74, 0x61, 0x5c, 0x4c, 0x6f, 0x63, 0x61, 0x6c, 0x5c, 0x50,
    0x61, 0x63, 0x6b, 0x61, 0x67, 0x65, 0x73, 0x5c, 0x50, 0x79, 0x74, 0x68,
    0x6f, 0x6e, 0x53, 0x6f, 0x66, 0x74, 0x77, 0x61, 0x72, 0x65, 0x46, 0x6f,
    0x75, 0x6e, 0x64, 0x61, 0x74, 0x69, 0x6f, 0x6e, 0x2e, 0x50, 0x79, 0x74,
    0x68, 0x6f, 0x6e, 0x2e, 0x33, 0x2e, 0x31, 0x31, 0x5f, 0x71, 0x62, 0x7a,
    0x35, 0x6e, 0x32, 0x6b, 0x66, 0x72, 0x61, 0x38, 0x70, 0x30, 0x5c, 0x4c,
    0x6f, 0x63, 0x61, 0x6c, 0x43, 0x61, 0x63, 0x68, 0x65, 0x5c, 0x6c, 0x6f,
    0x63, 0x61, 0x6c, 0x2d, 0x70, 0x61, 0x63, 0x6b, 0x61, 0x67, 0x65, 0x73,
    0x5c, 0x50, 0x79, 0x74, 0x68, 0x6f, 0x6e, 0x33, 0x31, 0x31, 0x5c, 0x73,
    0x69, 0x74, 0x65, 0x2d, 0x70, 0x61, 0x63, 0x6b, 0x61, 0x67, 0x65, 0x73,
    0x5c, 0x74, 0x6f, 0x72, 0x63, 0x68, 0x5c, 0x6e, 0x6e, 0x5c, 0x6d, 0x6f,
    0x64, 0x75, 0x6c, 0x65, 0x73, 0x5c, 0x63, 0x6f, 0x6e, 0x74, 0x61, 0x69,
    0x6e, 0x65, 0x72, 0x2e, 0x70, 0x79, 0x22, 0x2c, 0x20, 0x6c, 0x69, 0x6e,
    0x65, 0x20, 0x32, 0x35, 0x30, 0x2c, 0x20, 0x69, 0x6e, 0x20, 0x66, 0x6f,
    0x72, 0x77, 0x61, 0x72, 0x64, 0x0a, 0x20, 0x20, 0x20, 0x20, 0x69, 0x6e,
    0x70, 0x75, 0x74, 0x20, 0x3d, 0x20, 0x6d, 0x6f, 0x64, 0x75, 0x6c, 0x65,
    0x28, 0x69, 0x6e, 0x70, 0x75, 0x74, 0x29, 0x0a, 0x20, 0x20, 0x46, 0x69,
    0x6c, 0x65, 0x20, 0x22, 0x43, 0x3a, 0x5c, 0x50, 0x72, 0x6f, 0x6a, 0x65,
    0x63, 0x74, 0x5c, 0x43, 0x4e, 0x4e, 0x2d, 0x45, 0x43, 0x47, 0x5c, 0x73,
    0x72, 0x63, 0x5c, 0x73, 0x6c, 0x65, 0x65, 0x70, 0x5f, 0x73, 0x74, 0x61,
    0x67, 0x69, 0x6e, 0x67, 0x5c, 0x6d, 0x6f, 0x64, 0x65, 0x6c, 0x73, 0x2e,
    0x70, 0x79, 0x22, 0x2c, 0x20, 0x6c, 0x69, 0x6e, 0x65, 0x20, 0x38, 0x31,
    0x2c, 0x20, 0x69, 0x6e, 0x20, 0x66, 0x6f, 0x72, 0x77, 0x61, 0x72, 0x64,
    0x0a, 0x20, 0x20, 0x20, 0x20, 0x72, 0x65, 0x74, 0x75, 0x72, 0x6e, 0x20,
    0x46, 0x2e, 0x72, 0x65, 0x6c, 0x75, 0x36, 0x28, 0x73, 0x65, 0x6c, 0x66,
    0x2e, 0x62, 0x6e, 0x28, 0x73, 0x65, 0x6c, 0x66, 0x2e, 0x70, 0x77, 0x28,
    0x73, 0x65, 0x6c, 0x66, 0x2e, 0x64, 0x77, 0x28, 0x78, 0x29, 0x29, 0x29,
    0x29, 0x0a, 0xae, 0x0d, 0x0a, 0x05, 0x72, 0x65, 0x6c, 0x75, 0x36, 0x0a,
    0x0f, 0x63, 0x6e, 0x6e, 0x2e, 0x34, 0x2e, 0x64, 0x77, 0x2e, 0x77, 0x65,
    0x69, 0x67, 0x68, 0x74, 0x12, 0x08, 0x63, 0x6f, 0x6e, 0x76, 0x32, 0x64,
    0x5f, 0x33, 0x1a, 0x0d, 0x6e, 0x6f, 0x64, 0x65, 0x5f, 0x43, 0x6f, 0x6e,
    0x76, 0x5f, 0x31, 0x37, 0x34, 0x22, 0x04, 0x43, 0x6f, 0x6e, 0x76, 0x2a,
    0x15, 0x0a, 0x08, 0x61, 0x75, 0x74, 0x6f, 0x5f, 0x70, 0x61, 0x64, 0x22,
    0x06, 0x4e, 0x4f, 0x54, 0x53, 0x45, 0x54, 0xa0, 0x01, 0x03, 0x2a, 0x12,
    0x0a, 0x09, 0x64, 0x69, 0x6c, 0x61, 0x74, 0x69, 0x6f, 0x6e, 0x73, 0x40,
    0x01, 0x40, 0x01, 0xa0, 0x01, 0x07, 0x2a, 0x0c, 0x0a, 0x05, 0x67, 0x72,
    0x6f, 0x75, 0x70, 0x18, 0x20, 0xa0, 0x01, 0x02, 0x2a, 0x11, 0x0a, 0x04,
    0x70, 0x61, 0x64, 0x73, 0x40, 0x01, 0x40, 0x01, 0x40, 0x01, 0x40, 0x01,
    0xa0, 0x01, 0x07, 0x2a, 0x10, 0x0a, 0x07, 0x73, 0x74, 0x72, 0x69, 0x64,
    0x65, 0x73, 0x40, 0x01, 0x40, 0x01, 0xa0, 0x01, 0x07, 0x4a, 0xcd, 0x01,
    0x0a, 0x09, 0x6e, 0x61, 0x6d, 0x65, 0x73, 0x70, 0x61, 0x63, 0x65, 0x12,
    0xbf, 0x01, 0x3a, 0x20, 0x73, 0x6c, 0x65, 0x65, 0x70, 0x5f, 0x73, 0x74,
    0x61, 0x67, 0x69, 0x6e, 0x67, 0x2e, 0x6d, 0x6f, 0x64, 0x65, 0x6c, 0x73,
    0x2e, 0x53, 0x74, 0x75, 0x64, 0x65, 0x6e, 0x74, 0x43, 0x52, 0x4e, 0x4e,
    0x2f, 0x63, 0x6e, 0x6e, 0x3a, 0x20, 0x74, 0x6f, 0x72, 0x63, 0x68, 0x2e,
    0x6e, 0x6e, 0x2e, 0x6d, 0x6f, 0x64, 0x75, 0x6c, 0x65, 0x73, 0x2e, 0x63,
    0x6f, 0x6e, 0x74, 0x61, 0x69, 0x6e, 0x65, 0x72, 0x2e, 0x53, 0x65, 0x71,
    0x75, 0x65, 0x6e, 0x74, 0x69, 0x61, 0x6c, 0x2f, 0x63, 0x6e, 0x6e, 0x2e,
    0x34, 0x3a, 0x20, 0x73, 0x6c, 0x65, 0x65, 0x70, 0x5f, 0x73, 0x74, 0x61,
    0x67, 0x69, 0x6e, 0x67, 0x2e, 0x6d, 0x6f, 0x64, 0x65, 0x6c, 0x73, 0x2e,
    0x44, 0x65, 0x70, 0x74, 0x68, 0x77, 0x69, 0x73, 0x65, 0x53, 0x65, 0x70,
    0x43, 0x6f, 0x6e, 0x76, 0x2f, 0x63, 0x6e, 0x6e, 0x2e, 0x34, 0x2e, 0x64,
    0x77, 0x3a, 0x20, 0x74, 0x6f, 0x72, 0x63, 0x68, 0x2e, 0x6e, 0x6e, 0x2e,
    0x6d, 0x6f, 0x64, 0x75, 0x6c, 0x65, 0x73, 0x2e, 0x63, 0x6f, 0x6e, 0x76,
    0x2e, 0x43, 0x6f, 0x6e, 0x76, 0x32, 0x64, 0x2f, 0x63, 0x6f, 0x6e, 0x76,
    0x32, 0x64, 0x5f, 0x33, 0x3a, 0x20, 0x61, 0x74, 0x65, 0x6e, 0x2e, 0x63,
    0x6f, 0x6e, 0x76, 0x32, 0x64, 0x2e, 0x64, 0x65, 0x66, 0x61, 0x75, 0x6c,
    0x74, 0x4a, 0x3f, 0x0a, 0x21, 0x70, 0x6b, 0x67, 0x2e, 0x6f, 0x6e, 0x6e,
    0x78, 0x73, 0x63, 0x72, 0x69, 0x70, 0x74, 0x2e, 0x72, 0x65, 0x77, 0x72,
    0x69, 0x74, 0x65, 0x72, 0x2e, 0x72, 0x75, 0x6c, 0x65, 0x5f, 0x6e, 0x61,
    0x6d, 0x65, 0x12, 0x1a, 0x52, 0x65, 0x6d, 0x6f, 0x76, 0x65, 0x4f, 0x70,
    0x74, 0x69, 0x6f, 0x6e, 0x61, 0x6c, 0x42, 0x69, 0x61, 0x73, 0x46, 0x72,
    0x6f, 0x6d, 0x43, 0x6f, 0x6e, 0x76, 0x4a, 0xd0, 0x01, 0x0a, 0x1e, 0x70,
    0x6b, 0x67, 0x2e, 0x74, 0x6f, 0x72, 0x63, 0x68, 0x2e, 0x6f, 0x6e, 0x6e,
    0x78, 0x2e, 0x63, 0x6c, 0x61, 0x73, 0x73, 0x5f, 0x68, 0x69, 0x65, 0x72,
    0x61, 0x72, 0x63, 0x68, 0x79, 0x12, 0xad, 0x01, 0x5b, 0x27, 0x73, 0x6c,
    0x65, 0x65, 0x70, 0x5f, 0x73, 0x74, 0x61, 0x67, 0x69, 0x6e, 0x67, 0x2e,
    0x6d, 0x6f, 0x64, 0x65, 0x6c, 0x73, 0x2e, 0x53, 0x74, 0x75, 0x64, 0x65,
    0x6e, 0x74, 0x43, 0x52, 0x4e, 0x4e, 0x27, 0x2c, 0x20, 0x27, 0x74, 0x6f,
    0x72, 0x63, 0x68, 0x2e, 0x6e, 0x6e, 0x2e, 0x6d, 0x6f, 0x64, 0x75, 0x6c,
    0x65, 0x73, 0x2e, 0x63, 0x6f, 0x6e, 0x74, 0x61, 0x69, 0x6e, 0x65, 0x72,
    0x2e, 0x53, 0x65, 0x71, 0x75, 0x65, 0x6e, 0x74, 0x69, 0x61, 0x6c, 0x27,
    0x2c, 0x20, 0x27, 0x73, 0x6c, 0x65, 0x65, 0x70, 0x5f, 0x73, 0x74, 0x61,
    0x67, 0x69, 0x6e, 0x67, 0x2e, 0x6d, 0x6f, 0x64, 0x65, 0x6c, 0x73, 0x2e,
    0x44, 0x65, 0x70, 0x74, 0x68, 0x77, 0x69, 0x73, 0x65, 0x53, 0x65, 0x70,
    0x43, 0x6f, 0x6e, 0x76, 0x27, 0x2c, 0x20, 0x27, 0x74, 0x6f, 0x72, 0x63,
    0x68, 0x2e, 0x6e, 0x6e, 0x2e, 0x6d, 0x6f, 0x64, 0x75, 0x6c, 0x65, 0x73,
    0x2e, 0x63, 0x6f, 0x6e, 0x76, 0x2e, 0x43, 0x6f, 0x6e, 0x76, 0x32, 0x64,
    0x27, 0x2c, 0x20, 0x27, 0x61, 0x74, 0x65, 0x6e, 0x2e, 0x63, 0x6f, 0x6e,
    0x76, 0x32, 0x64, 0x2e, 0x64, 0x65, 0x66, 0x61, 0x75, 0x6c, 0x74, 0x27,
    0x5d, 0x4a, 0xbe, 0x01, 0x0a, 0x16, 0x70, 0x6b, 0x67, 0x2e, 0x74, 0x6f,
    0x72, 0x63, 0x68, 0x2e, 0x6f, 0x6e, 0x6e, 0x78, 0x2e, 0x66, 0x78, 0x5f,
    0x6e, 0x6f, 0x64, 0x65, 0x12, 0xa3, 0x01, 0x25, 0x63, 0x6f, 0x6e, 0x76,
    0x32, 0x64, 0x5f, 0x33, 0x20, 0x3a, 0x20, 0x5b, 0x6e, 0x75, 0x6d, 0x5f,
    0x75, 0x73, 0x65, 0x72, 0x73, 0x3d, 0x31, 0x5d, 0x20, 0x3d, 0x20, 0x63,
    0x61, 0x6c, 0x6c, 0x5f, 0x66, 0x75, 0x6e, 0x63, 0x74, 0x69, 0x6f, 0x6e,
    0x5b, 0x74, 0x61, 0x72, 0x67, 0x65, 0x74, 0x3d, 0x74, 0x6f, 0x72, 0x63,
    0x68, 0x2e, 0x6f, 0x70, 0x73, 0x2e, 0x61, 0x74, 0x65, 0x6e, 0x2e, 0x63,
    0x6f, 0x6e, 0x76, 0x32, 0x64, 0x2e, 0x64, 0x65, 0x66, 0x61, 0x75, 0x6c,
    0x74, 0x5d, 0x28, 0x61, 0x72, 0x67, 0x73, 0x20, 0x3d, 0x20, 0x28, 0x25,
    0x72, 0x65, 0x6c, 0x75, 0x36, 0x2c, 0x20, 0x25, 0x70, 0x5f, 0x63, 0x6e,
    0x6e, 0x5f, 0x34, 0x5f, 0x64, 0x77, 0x5f, 0x77, 0x65, 0x69, 0x67, 0x68,
    0x74, 0x2c, 0x20, 0x4e, 0x6f, 0x6e, 0x65, 0x2c, 0x20, 0x5b, 0x31, 0x2c,
    0x20, 0x31, 0x5d, 0x2c, 0x20, 0x5b, 0x31, 0x2c, 0x20, 0x31, 0x5d, 0x2c,
    0x20, 0x5b, 0x31, 0x2c, 0x20, 0x31, 0x5d, 0x2c, 0x20, 0x33, 0x32, 0x29,
    0x2c, 0x20, 0x6b, 0x77, 0x61, 0x72, 0x67, 0x73, 0x20, 0x3d, 0x20, 0x7b,
    0x7d, 0x29, 0x4a, 0x4a, 0x0a, 0x1a, 0x70, 0x6b, 0x67, 0x2e, 0x74, 0x6f,
    0x72, 0x63, 0x68, 0x2e, 0x6f, 0x6e, 0x6e, 0x78, 0x2e, 0x6e, 0x61, 0x6d,
    0x65, 0x5f, 0x73, 0x63, 0x6f, 0x70, 0x65, 0x73, 0x12, 0x2c, 0x5b, 0x27,
    0x27, 0x2c, 0x20, 0x27, 0x63, 0x6e, 0x6e, 0x27, 0x2c, 0x20, 0x27, 0x63,
    0x6e, 0x6e, 0x2e, 0x34, 0x27, 0x2c, 0x20, 0x27, 0x63, 0x6e, 0x6e, 0x2e,
    0x34, 0x2e, 0x64, 0x77, 0x27, 0x2c, 0x20, 0x27, 0x63, 0x6f, 0x6e, 0x76,
    0x32, 0x64, 0x5f, 0x33, 0x27, 0x5d, 0x4a, 0xa5, 0x06, 0x0a, 0x1a, 0x70,
    0x6b, 0x67, 0x2e, 0x74, 0x6f, 0x72, 0x63, 0x68, 0x2e, 0x6f, 0x6e, 0x6e,
    0x78, 0x2e, 0x73, 0x74, 0x61, 0x63, 0x6b, 0x5f, 0x74, 0x72, 0x61, 0x63,
    0x65, 0x12, 0x86, 0x06, 0x46, 0x69, 0x6c, 0x65, 0x20, 0x22, 0x43, 0x3a,
    0x5c, 0x50, 0x72, 0x6f, 0x6a, 0x65, 0x63, 0x74, 0x5c, 0x43, 0x4e, 0x4e,
    0x2d, 0x45, 0x43, 0x47, 0x5c, 0x73, 0x72, 0x63, 0x5c, 0x73, 0x6c, 0x65,
    0x65, 0x70, 0x5f, 0x73, 0x74, 0x61, 0x67, 0x69, 0x6e, 0x67, 0x5c, 0x6d,
    0x6f, 0x64, 0x65, 0x6c, 0x73, 0x2e, 0x70, 0x79, 0x22, 0x2c, 0x20, 0x6c,
    0x69, 0x6e, 0x65, 0x20, 0x31, 0x30, 0x34, 0x2c, 0x20, 0x69, 0x6e, 0x20,
    0x66, 0x6f, 0x72, 0x77, 0x61, 0x72, 0x64, 0x0a, 0x20, 0x20, 0x20, 0x20,
    0x66, 0x65, 0x61, 0x74, 0x73, 0x20, 0x3d, 0x20, 0x73, 0x65, 0x6c, 0x66,
    0x2e, 0x63, 0x6e, 0x6e, 0x28, 0x78, 0x2e, 0x76, 0x69, 0x65, 0x77, 0x28,
    0x62, 0x73, 0x7a, 0x20, 0x2a, 0x20, 0x73, 0x65, 0x71, 0x5f, 0x6c, 0x65,
    0x6e, 0x2c, 0x20, 0x63, 0x68, 0x61, 0x6e, 0x6e, 0x65, 0x6c, 0x73, 0x2c,
    0x20, 0x66, 0x72, 0x65, 0x71, 0x73, 0x2c, 0x20, 0x74, 0x69, 0x6d, 0x65,
    0x73, 0x29, 0x29, 0x2e, 0x76, 0x69, 0x65, 0x77, 0x28, 0x62, 0x73, 0x7a,
    0x2c, 0x20, 0x73, 0x65, 0x71, 0x5f, 0x6c, 0x65, 0x6e, 0x2c, 0x20, 0x36,
    0x34, 0x29, 0x0a, 0x20, 0x20, 0x46, 0x69, 0x6c, 0x65, 0x20, 0x22, 0x43,
    0x3a, 0x5c, 0x55, 0x73, 0x65, 0x72, 0x73, 0x5c, 0x73, 0x68, 0x61, 0x6d,
    0x69, 0x5c, 0x41, 0x70, 0x70, 0x44, 0x61, 0x74, 0x61, 0x5c, 0x4c, 0x6f,
    0x63, 0x61, 0x6c, 0x5c, 0x50, 0x61, 0x63, 0x6b, 0x61, 0x67, 0x65, 0x73,
    0x5c, 0x50, 0x79, 0x74, 0x68, 0x6f, 0x6e, 0x53, 0x6f, 0x66, 0x74, 0x77,
    0x61, 0x72, 0x65, 0x46, 0x6f, 0x75, 0x6e, 0x64, 0x61, 0x74, 0x69, 0x6f,
    0x6e, 0x2e, 0x50, 0x79, 0x74, 0x68, 0x6f, 0x6e, 0x2e, 0x33, 0x2e, 0x31,
    0x31, 0x5f, 0x71, 0x62, 0x7a, 0x35, 0x6e, 0x32, 0x6b, 0x66, 0x72, 0x61,
    0x38, 0x70, 0x30, 0x5c, 0x4c, 0x6f, 0x63, 0x61, 0x6c, 0x43, 0x61, 0x63,
    0x68, 0x65, 0x5c, 0x6c, 0x6f, 0x63, 0x61, 0x6c, 0x2d, 0x70, 0x61, 0x63,
    0x6b, 0x61, 0x67, 0x65, 0x73, 0x5c, 0x50, 0x79, 0x74, 0x68, 0x6f, 0x6e,
    0x33, 0x31, 0x31, 0x5c, 0x73, 0x69, 0x74, 0x65, 0x2d, 0x70, 0x61, 0x63,
    0x6b, 0x61, 0x67, 0x65, 0x73, 0x5c, 0x74, 0x6f, 0x72, 0x63, 0x68, 0x5c,
    0x6e, 0x6e, 0x5c, 0x6d, 0x6f, 0x64, 0x75, 0x6c, 0x65, 0x73, 0x5c, 0x63,
    0x6f, 0x6e, 0x74, 0x61, 0x69, 0x6e, 0x65, 0x72, 0x2e, 0x70, 0x79, 0x22,
    0x2c, 0x20, 0x6c, 0x69, 0x6e, 0x65, 0x20, 0x32, 0x35, 0x30, 0x2c, 0x20,
    0x69, 0x6e, 0x20, 0x66, 0x6f, 0x72, 0x77, 0x61, 0x72, 0x64, 0x0a, 0x20,
    0x20, 0x20, 0x20, 0x69, 0x6e, 0x70, 0x75, 0x74, 0x20, 0x3d, 0x20, 0x6d,
    0x6f, 0x64, 0x75, 0x6c, 0x65, 0x28, 0x69, 0x6e, 0x70, 0x75, 0x74, 0x29,
    0x0a, 0x20, 0x20, 0x46, 0x69, 0x6c, 0x65, 0x20, 0x22, 0x43, 0x3a, 0x5c,
    0x50, 0x72, 0x6f, 0x6a, 0x65, 0x63, 0x74, 0x5c, 0x43, 0x4e, 0x4e, 0x2d,
    0x45, 0x43, 0x47, 0x5c, 0x73, 0x72, 0x63, 0x5c, 0x73, 0x6c, 0x65, 0x65,
    0x70, 0x5f, 0x73, 0x74, 0x61, 0x67, 0x69, 0x6e, 0x67, 0x5c, 0x6d, 0x6f,
    0x64, 0x65, 0x6c, 0x73, 0x2e, 0x70, 0x79, 0x22, 0x2c, 0x20, 0x6c, 0x69,
    0x6e, 0x65, 0x20, 0x38, 0x31, 0x2c, 0x20, 0x69, 0x6e, 0x20, 0x66, 0x6f,
    0x72, 0x77, 0x61, 0x72, 0x64, 0x0a, 0x20, 0x20, 0x20, 0x20, 0x72, 0x65,
    0x74, 0x75, 0x72, 0x6e, 0x20, 0x46, 0x2e, 0x72, 0x65, 0x6c, 0x75, 0x36,
    0x28, 0x73, 0x65, 0x6c, 0x66, 0x2e, 0x62, 0x6e, 0x28, 0x73, 0x65, 0x6c,
    0x66, 0x2e, 0x70, 0x77, 0x28, 0x73, 0x65, 0x6c, 0x66, 0x2e, 0x64, 0x77,
    0x28, 0x78, 0x29, 0x29, 0x29, 0x29, 0x0a, 0x20, 0x20, 0x46, 0x69, 0x6c,
    0x65, 0x20, 0x22, 0x43, 0x3a, 0x5c, 0x55, 0x73, 0x65, 0x72, 0x73, 0x5c,
    0x73, 0x68, 0x61, 0x6d, 0x69, 0x5c, 0x41, 0x70, 0x70, 0x44, 0x61, 0x74,
    0x61, 0x5c, 0x4c, 0x6f, 0x63, 0x61, 0x6c, 0x5c, 0x50, 0x61, 0x63, 0x6b,
    0x61, 0x67, 0x65, 0x73, 0x5c, 0x50, 0x79, 0x74, 0x68, 0x6f, 0x6e, 0x53,
    0x6f, 0x66, 0x74, 0x77, 0x61, 0x72, 0x65, 0x46, 0x6f, 0x75, 0x6e, 0x64,
    0x61, 0x74, 0x69, 0x6f, 0x6e, 0x2e, 0x50, 0x79, 0x74, 0x68, 0x6f, 0x6e,
    0x2e, 0x33, 0x2e, 0x31, 0x31, 0x5f, 0x71, 0x62, 0x7a, 0x35, 0x6e, 0x32,
    0x6b, 0x66, 0x72, 0x61, 0x38, 0x70, 0x30, 0x5c, 0x4c, 0x6f, 0x63, 0x61,
    0x6c, 0x43, 0x61, 0x63, 0x68, 0x65, 0x5c, 0x6c, 0x6f, 0x63, 0x61, 0x6c,
    0x2d, 0x70, 0x61, 0x63, 0x6b, 0x61, 0x67, 0x65, 0x73, 0x5c, 0x50, 0x79,
    0x74, 0x68, 0x6f, 0x6e, 0x33, 0x31, 0x31, 0x5c, 0x73, 0x69, 0x74, 0x65,
    0x2d, 0x70, 0x61, 0x63, 0x6b, 0x61, 0x67, 0x65, 0x73, 0x5c, 0x74, 0x6f,
    0x72, 0x63, 0x68, 0x5c, 0x6e, 0x6e, 0x5c, 0x6d, 0x6f, 0x64, 0x75, 0x6c,
